{
  "version": "1.0",
  "truncation": null,
  "padding": null,
  "added_tokens": [
    {
      "id": 0,
      "content": "[UNK]",
      "single_word": false,
      "lstrip": false,
      "rstrip": false,
      "normalized": false,
      "special": true
    },
    {
      "id": 1,
      "content": "[CLS]",
      "single_word": false,
      "lstrip": false,
      "rstrip": false,
      "normalized": false,
      "special": true
    },
    {
      "id": 2,
      "content": "[SEP]",
      "single_word": false,
      "lstrip": false,
      "rstrip": false,
      "normalized": false,
      "special": true
    },
    {
      "id": 3,
      "content": "[PAD]",
      "single_word": false,
      "lstrip": false,
      "rstrip": false,
      "normalized": false,
      "special": true
    },
    {
      "id": 4,
      "content": "[MASK]",
      "single_word": false,
      "lstrip": false,
      "rstrip": false,
      "normalized": false,
      "special": true
    }
  ],
  "normalizer": null,
  "pre_tokenizer": {
    "type": "Whitespace"
  },
  "post_processor": null,
  "decoder": null,
  "model": {
    "type": "BPE",
    "dropout": null,
    "unk_token": "[UNK]",
    "continuing_subword_prefix": null,
    "end_of_word_suffix": null,
    "fuse_unk": false,
    "byte_fallback": false,
    "ignore_merges": false,
    "vocab": {
      "[UNK]": 0,
      "[CLS]": 1,
      "[SEP]": 2,
      "[PAD]": 3,
      "[MASK]": 4,
      "!": 5,
      "\"": 6,
      "$": 7,
      "%": 8,
      "&": 9,
      "'": 10,
      "(": 11,
      ")": 12,
      "*": 13,
      "+": 14,
      ",": 15,
      "-": 16,
      ".": 17,
      "/": 18,
      "0": 19,
      "1": 20,
      "2": 21,
      "3": 22,
      "4": 23,
      "5": 24,
      "6": 25,
      "7": 26,
      "8": 27,
      "9": 28,
      ":": 29,
      ";": 30,
      "<": 31,
      "=": 32,
      ">": 33,
      "?": 34,
      "@": 35,
      "A": 36,
      "B": 37,
      "C": 38,
      "D": 39,
      "E": 40,
      "F": 41,
      "G": 42,
      "H": 43,
      "I": 44,
      "J": 45,
      "K": 46,
      "L": 47,
      "M": 48,
      "N": 49,
      "O": 50,
      "P": 51,
      "Q": 52,
      "R": 53,
      "S": 54,
      "T": 55,
      "U": 56,
      "V": 57,
      "W": 58,
      "X": 59,
      "Y": 60,
      "[": 61,
      "]": 62,
      "`": 63,
      "a": 64,
      "b": 65,
      "c": 66,
      "d": 67,
      "e": 68,
      "f": 69,
      "g": 70,
      "h": 71,
      "i": 72,
      "j": 73,
      "k": 74,
      "l": 75,
      "m": 76,
      "n": 77,
      "o": 78,
      "p": 79,
      "q": 80,
      "r": 81,
      "s": 82,
      "t": 83,
      "u": 84,
      "v": 85,
      "w": 86,
      "x": 87,
      "y": 88,
      "z": 89,
      "{": 90,
      "}": 91,
      "ā": 92,
      "ğ": 93,
      "ī": 94,
      "ṁ": 95,
      "ṅ": 96,
      "ṭ": 97,
      "–": 98,
      "‘": 99,
      "’": 100,
      "“": 101,
      "”": 102,
      "an": 103,
      "in": 104,
      "th": 105,
      "on": 106,
      "ou": 107,
      "es": 108,
      "er": 109,
      "at": 110,
      "or": 111,
      "en": 112,
      "re": 113,
      "to": 114,
      "ing": 115,
      "the": 116,
      "and": 117,
      "st": 118,
      "you": 119,
      "al": 120,
      "ion": 121,
      "wi": 122,
      "ct": 123,
      "it": 124,
      "as": 125,
      "ro": 126,
      "de": 127,
      "is": 128,
      "le": 129,
      "\"\"": 130,
      "ll": 131,
      "ic": 132,
      "ar": 133,
      "ch": 134,
      "pro": 135,
      "ed": 136,
      "est": 137,
      "ent": 138,
      "ve": 139,
      "me": 140,
      "will": 141,
      "pl": 142,
      "for": 143,
      "co": 144,
      "ant": 145,
      "act": 146,
      "of": 147,
      "ir": 148,
      "ex": 149,
      "ation": 150,
      "want": 151,
      "qu": 152,
      "vi": 153,
      "with": 154,
      "no": 155,
      "se": 156,
      "su": 157,
      "\",": 158,
      "\",\"": 159,
      "be": 160,
      "ag": 161,
      "lo": 162,
      "ce": 163,
      "mp": 164,
      "ld": 165,
      "ne": 166,
      "ter": 167,
      "ess": 168,
      "irst": 169,
      "so": 170,
      "ate": 171,
      "he": 172,
      "You": 173,
      "quest": 174,
      "ke": 175,
      "li": 176,
      "ab": 177,
      "con": 178,
      "first": 179,
      "rit": 180,
      "sh": 181,
      "te": 182,
      "pe": 183,
      "ut": 184,
      "ly": 185,
      "per": 186,
      "provi": 187,
      "un": 188,
      "your": 189,
      "My": 190,
      "ould": 191,
      "ive": 192,
      "that": 193,
      "ma": 194,
      "ions": 195,
      "provide": 196,
      "mm": 197,
      "do": 198,
      "out": 199,
      "ur": 200,
      "wh": 201,
      "not": 202,
      "ac": 203,
      "ad": 204,
      "writ": 205,
      "si": 206,
      "are": 207,
      "\"\"\"": 208,
      "ay": 209,
      "di": 210,
      "gu": 211,
      "us": 212,
      "ver": 213,
      "mo": 214,
      "ment": 215,
      "wor": 216,
      "request": 217,
      "ts": 218,
      "ci": 219,
      "ap": 220,
      "ul": 221,
      "my": 222,
      "ach": 223,
      "age": 224,
      "should": 225,
      "res": 226,
      "need": 227,
      "ies": 228,
      "ow": 229,
      "expl": 230,
      "der": 231,
      "str": 232,
      "ations": 233,
      "hel": 234,
      "ist": 235,
      "help": 236,
      "am": 237,
      "po": 238,
      "ical": 239,
      "write": 240,
      "any": 241,
      "comm": 242,
      "ect": 243,
      "gg": 244,
      "im": 245,
      "et": 246,
      "gh": 247,
      "ply": 248,
      "sugg": 249,
      "suggest": 250,
      "cre": 251,
      "tr": 252,
      "end": 253,
      "ther": 254,
      "thing": 255,
      ".\"\"\"": 256,
      "able": 257,
      ".\"": 258,
      "up": 259,
      "ans": 260,
      "can": 261,
      "cl": 262,
      "pr": 263,
      "all": 264,
      "art": 265,
      "form": 266,
      "des": 267,
      "il": 268,
      "ence": 269,
      "reply": 270,
      "Do": 271,
      "ta": 272,
      "wer": 273,
      "eng": 274,
      "one": 275,
      "if": 276,
      "iv": 277,
      "ine": 278,
      "velo": 279,
      "comp": 280,
      "explan": 281,
      "ha": 282,
      "king": 283,
      "some": 284,
      "op": 285,
      "ding": 286,
      "ff": 287,
      "spe": 288,
      "their": 289,
      "word": 290,
      "uct": 291,
      "ame": 292,
      "ces": 293,
      "ig": 294,
      "inter": 295,
      "about": 296,
      "**": 297,
      "use": 298,
      "we": 299,
      "mpt": 300,
      "explanations": 301,
      "them": 302,
      "clu": 303,
      "by": 304,
      "el": 305,
      "only": 306,
      "ener": 307,
      "develo": 308,
      "ers": 309,
      "ice": 310,
      "oo": 311,
      "ask": 312,
      "like": 313,
      "cr": 314,
      "ep": 315,
      "ge": 316,
      "ip": 317,
      "ator": 318,
      "ional": 319,
      "rom": 320,
      "gr": 321,
      "our": 322,
      "led": 323,
      "tech": 324,
      "cor": 325,
      "from": 326,
      "pre": 327,
      "put": 328,
      "vie": 329,
      "iz": 330,
      "lan": 331,
      "ure": 332,
      "ual": 333,
      "inclu": 334,
      "In": 335,
      "ish": 336,
      "ble": 337,
      "how": 338,
      "pon": 339,
      "ty": 340,
      "top": 341,
      "ext": 342,
      "develop": 343,
      "id": 344,
      "ide": 345,
      "sent": 346,
      "ating": 347,
      "stand": 348,
      "log": 349,
      "answer": 350,
      "sit": 351,
      "ance": 352,
      "ated": 353,
      "ack": 354,
      "adv": 355,
      "guage": 356,
      "ase": 357,
      "under": 358,
      "ject": 359,
      "um": 360,
      "this": 361,
      "ics": 362,
      "code": 363,
      "now": 364,
      "respon": 365,
      "The": 366,
      "ob": 367,
      "ting": 368,
      "ud": 369,
      "exper": 370,
      "Your": 371,
      "list": 372,
      "fe": 373,
      "min": 374,
      "ary": 375,
      "prompt": 376,
      "what": 377,
      "suggestion": 378,
      "have": 379,
      "En": 380,
      "Re": 381,
      "son": 382,
      "inform": 383,
      "ough": 384,
      "rel": 385,
      "deta": 386,
      "tell": 387,
      "language": 388,
      "ain": 389,
      "go": 390,
      "other": 391,
      "ph": 392,
      "ative": 393,
      "ity": 394,
      "arch": 395,
      "make": 396,
      "command": 397,
      "ign": 398,
      "understand": 399,
      "br": 400,
      "gener": 401,
      "iqu": 402,
      "ol": 403,
      "create": 404,
      "Pro": 405,
      "cur": 406,
      "cus": 407,
      "fo": 408,
      "lish": 409,
      "od": 410,
      "text": 411,
      "into": 412,
      "ences": 413,
      "nothing": 414,
      "work": 415,
      "else": 416,
      "ak": 417,
      "bas": 418,
      "ie": 419,
      "tent": 420,
      "cep": 421,
      "mple": 422,
      "include": 423,
      "advice": 424,
      "Wh": 425,
      "but": 426,
      "give": 427,
      "ms": 428,
      "way": 429,
      "ort": 430,
      "step": 431,
      "new": 432,
      "question": 433,
      "struct": 434,
      "words": 435,
      "cess": 436,
      "know": 437,
      "ust": 438,
      "insi": 439,
      "oun": 440,
      "ous": 441,
      "ore": 442,
      "ments": 443,
      "techn": 444,
      "ti": 445,
      "come": 446,
      "such": 447,
      "loc": 448,
      "speci": 449,
      "Eng": 450,
      "information": 451,
      "dat": 452,
      "ial": 453,
      "ser": 454,
      "order": 455,
      "also": 456,
      "char": 457,
      "aging": 458,
      "questions": 459,
      "**:": 460,
      "type": 461,
      "av": 462,
      "each": 463,
      "ful": 464,
      "over": 465,
      "tw": 466,
      "vis": 467,
      "ari": 468,
      "ents": 469,
      "sure": 470,
      "ateg": 471,
      "concep": 472,
      "person": 473,
      "ledge": 474,
      "based": 475,
      "Th": 476,
      "fin": 477,
      "fer": 478,
      "sy": 479,
      "wn": 480,
      "ory": 481,
      "its": 482,
      "lect": 483,
      "lear": 484,
      "lease": 485,
      "ples": 486,
      "key": 487,
      "diff": 488,
      "design": 489,
      "Co": 490,
      "DA": 491,
      "St": 492,
      "ca": 493,
      "could": 494,
      "em": 495,
      "get": 496,
      "ill": 497,
      "job": 498,
      "man": 499,
      "com": 500,
      "sol": 501,
      "impro": 502,
      "something": 503,
      "view": 504,
      "knowledge": 505,
      "time": 506,
      "ace": 507,
      "back": 508,
      "ev": 509,
      "giv": 510,
      "sing": 511,
      "tions": 512,
      "ue": 513,
      "ong": 514,
      "ese": 515,
      "let": 516,
      "ication": 517,
      "oftw": 518,
      "sel": 519,
      "peop": 520,
      "when": 521,
      "add": 522,
      "strateg": 523,
      "sentence": 524,
      "related": 525,
      "detail": 526,
      "When": 527,
      "English": 528,
      "charact": 529,
      "oftware": 530,
      "people": 531,
      "af": 532,
      "cis": 533,
      "duct": 534,
      "ech": 535,
      "ian": 536,
      "just": 537,
      "les": 538,
      "lar": 539,
      "ving": 540,
      "ere": 541,
      "rect": 542,
      "stud": 543,
      "itect": 544,
      "plan": 545,
      "play": 546,
      "bet": 547,
      "loo": 548,
      "experi": 549,
      "goal": 550,
      "An": 551,
      "If": 552,
      "ber": 553,
      "igh": 554,
      "more": 555,
      "sk": 556,
      "erent": 557,
      "proble": 558,
      "col": 559,
      "sist": 560,
      "topic": 561,
      "commands": 562,
      "techniqu": 563,
      "data": 564,
      "Ex": 565,
      "ast": 566,
      "amm": 567,
      "ample": 568,
      "bo": 569,
      "cu": 570,
      "ire": 571,
      "line": 572,
      "sp": 573,
      "task": 574,
      "ves": 575,
      "ities": 576,
      "itional": 577,
      "ard": 578,
      "progr": 579,
      "vid": 580,
      "ages": 581,
      "termin": 582,
      "down": 583,
      "ural": 584,
      "appro": 585,
      "amples": 586,
      "trans": 587,
      "descr": 588,
      "different": 589,
      "DAN": 590,
      "techniques": 591,
      "?\"\"\"": 592,
      "Ch": 593,
      "Tr": 594,
      "num": 595,
      "ories": 596,
      "enc": 597,
      "project": 598,
      "vel": 599,
      "pract": 600,
      "press": 601,
      "ideas": 602,
      "sentences": 603,
      "inside": 604,
      "concepts": 605,
      "details": 606,
      "au": 607,
      "eff": 608,
      "has": 609,
      "ile": 610,
      "ks": 611,
      "software": 612,
      "}.": 613,
      "aning": 614,
      "anal": 615,
      "int": 616,
      "inv": 617,
      "\"\".\"": 618,
      "ich": 619,
      "prof": 620,
      "express": 621,
      "sub": 622,
      "using": 623,
      "very": 624,
      "ult": 625,
      "engaging": 626,
      "specif": 627,
      "This": 628,
      "strategies": 629,
      "character": 630,
      "bl": 631,
      "fun": 632,
      "ild": 633,
      "lin": 634,
      "mar": 635,
      "med": 636,
      "name": 637,
      "ses": 638,
      "indi": 639,
      "instruct": 640,
      "ors": 641,
      "recomm": 642,
      "assist": 643,
      "role": 644,
      "meaning": 645,
      "examples": 646,
      "who": 647,
      "cial": 648,
      "explain": 649,
      "creating": 650,
      "tain": 651,
      "comple": 652,
      "development": 653,
      "logy": 654,
      "understanding": 655,
      "ways": 656,
      "vidual": 657,
      "effect": 658,
      "individual": 659,
      "Con": 660,
      "Gener": 661,
      "Please": 662,
      "best": 663,
      "care": 664,
      "eas": 665,
      "earch": 666,
      "game": 667,
      "mat": 668,
      "mess": 669,
      "ot": 670,
      "pres": 671,
      "rough": 672,
      "tit": 673,
      "tend": 674,
      "these": 675,
      "through": 676,
      "review": 677,
      "llow": 678,
      "example": 679,
      "vide": 680,
      "essional": 681,
      "providing": 682,
      "vers": 683,
      "posit": 684,
      "there": 685,
      "artic": 686,
      "interest": 687,
      "correct": 688,
      "topics": 689,
      "expert": 690,
      "generator": 691,
      "focus": 692,
      "ound": 693,
      "learn": 694,
      "improve": 695,
      "given": 696,
      "terminal": 697,
      "AI": 698,
      "Ar": 699,
      "De": 700,
      "Use": 701,
      "bul": 702,
      "bloc": 703,
      "dis": 704,
      "fr": 705,
      "iled": 706,
      "ner": 707,
      "om": 708,
      "test": 709,
      "table": 710,
      "vari": 711,
      "yth": 712,
      "though": 713,
      "atic": 714,
      "ings": 715,
      "state": 716,
      "ational": 717,
      "output": 718,
      "which": 719,
      "user": 720,
      "mot": 721,
      "move": 722,
      "app": 723,
      "pos": 724,
      "creative": 725,
      "ific": 726,
      "compo": 727,
      "interpre": 728,
      "ween": 729,
      "ook": 730,
      "ources": 731,
      "architect": 732,
      "brac": 733,
      "follow": 734,
      "self": 735,
      "between": 736,
      "ight": 737,
      "recommend": 738,
      "block": 739,
      "various": 740,
      "00": 741,
      "Ad": 742,
      "aw": 743,
      "ake": 744,
      "bu": 745,
      "bre": 746,
      "cer": 747,
      "dr": 748,
      "du": 749,
      "ell": 750,
      "og": 751,
      "pie": 752,
      "sci": 753,
      "would": 754,
      "ze": 755,
      "input": 756,
      "thod": 757,
      "ref": 758,
      "tool": 759,
      "they": 760,
      "start": 761,
      "dep": 762,
      "issu": 763,
      "nology": 764,
      "agr": 765,
      "main": 766,
      "sible": 767,
      "dience": 768,
      "guide": 769,
      "research": 770,
      "anything": 771,
      "commun": 772,
      "etc": 773,
      "ghts": 774,
      "engine": 775,
      "well": 776,
      "ips": 777,
      "detailed": 778,
      "generate": 779,
      "ique": 780,
      "ills": 781,
      "solut": 782,
      "looking": 783,
      "skills": 784,
      "audience": 785,
      "analy": 786,
      "professional": 787,
      "Generator": 788,
      "present": 789,
      "title": 790,
      "For": 791,
      "Le": 792,
      "PT": 793,
      "Pr": 794,
      "aking": 795,
      "cal": 796,
      "fact": 797,
      "hist": 798,
      "imp": 799,
      "less": 800,
      "non": 801,
      "ness": 802,
      "pp": 803,
      "par": 804,
      "say": 805,
      "val": 806,
      "vant": 807,
      "ens": 808,
      "ree": 809,
      "rele": 810,
      "read": 811,
      "sty": 812,
      "alth": 813,
      "ass": 814,
      "ices": 815,
      "method": 816,
      "necess": 817,
      "conf": 818,
      "content": 819,
      "teach": 820,
      "unique": 821,
      "may": 822,
      "provided": 823,
      "ures": 824,
      "guess": 825,
      "ends": 826,
      "company": 827,
      "web": 828,
      "ipt": 829,
      "curly": 830,
      "steps": 831,
      "Coach": 832,
      "cise": 833,
      "goals": 834,
      "approach": 835,
      "invol": 836,
      "specific": 837,
      "complex": 838,
      "effective": 839,
      "tools": 840,
      "relevant": 841,
      "GPT": 842,
      "So": 843,
      "ail": 844,
      "bod": 845,
      "cli": 846,
      "crit": 847,
      "coun": 848,
      "emo": 849,
      "gan": 850,
      "ia": 851,
      "ied": 852,
      "ilo": 853,
      "lay": 854,
      "os": 855,
      "pes": 856,
      "pat": 857,
      "same": 858,
      "tim": 859,
      "ull": 860,
      "ying": 861,
      "onun": 862,
      "repl": 863,
      "requ": 864,
      "story": 865,
      "stem": 866,
      "choo": 867,
      "product": 868,
      "plication": 869,
      "been": 870,
      "low": 871,
      "health": 872,
      "ket": 873,
      "kets": 874,
      "mathem": 875,
      "while": 876,
      "writing": 877,
      "sider": 878,
      "moves": 879,
      "potent": 880,
      "suggestions": 881,
      "options": 882,
      "technology": 883,
      "cording": 884,
      "viewer": 885,
      "special": 886,
      "visual": 887,
      "personal": 888,
      "cause": 889,
      "after": 890,
      "experience": 891,
      "problem": 892,
      "amming": 893,
      "number": 894,
      "funct": 895,
      "easy": 896,
      "ython": 897,
      "issues": 898,
      "necessary": 899,
      "body": 900,
      "onunci": 901,
      "potential": 902,
      "?\"": 903,
      "Al": 904,
      "As": 905,
      "First": 906,
      "Gu": 907,
      "Tech": 908,
      "bus": 909,
      "cap": 910,
      "clear": 911,
      "don": 912,
      "every": 913,
      "fit": 914,
      "gn": 915,
      "git": 916,
      "ibe": 917,
      "mon": 918,
      "mer": 919,
      "por": 920,
      "please": 921,
      "sm": 922,
      "ten": 923,
      "vir": 924,
      "iness": 925,
      "tho": 926,
      "then": 927,
      "atGPT": 928,
      "organ": 929,
      "ensure": 930,
      "real": 931,
      "ream": 932,
      "theme": 933,
      "ctor": 934,
      "ded": 935,
      "level": 936,
      "action": 937,
      "activ": 938,
      "within": 939,
      "being": 940,
      "because": 941,
      "net": 942,
      "tern": 943,
      "soph": 944,
      "keep": 945,
      "lim": 946,
      "life": 947,
      "docu": 948,
      "where": 949,
      "notes": 950,
      "according": 951,
      "guid": 952,
      "gular": 953,
      "movie": 954,
      "tra": 955,
      "ength": 956,
      "ized": 957,
      "including": 958,
      "developing": 959,
      "responses": 960,
      "mind": 961,
      "song": 962,
      "system": 963,
      "Start": 964,
      "additional": 965,
      "problems": 966,
      "programming": 967,
      "ChatGPT": 968,
      "Develo": 969,
      "brackets": 970,
      "agram": 971,
      "methods": 972,
      "count": 973,
      "ilosoph": 974,
      "require": 975,
      "guidance": 976,
      ").": 977,
      "10": 978,
      "Act": 979,
      "Bud": 980,
      "Cre": 981,
      "SE": 982,
      "day": 983,
      "dha": 984,
      "ec": 985,
      "ef": 986,
      "eth": 987,
      "fl": 988,
      "fur": 989,
      "foo": 990,
      "gin": 991,
      "gir": 992,
      "ho": 993,
      "hance": 994,
      "ik": 995,
      "ior": 996,
      "ient": 997,
      "iate": 998,
      "lit": 999,
      "mus": 1000,
      "ren": 1001,
      "rent": 1002,
      "rout": 1003,
      "sc": 1004,
      "tal": 1005,
      "tar": 1006,
      "tag": 1007,
      "ink": 1008,
      "inte": 1009,
      "ints": 1010,
      "ering": 1011,
      "atical": 1012,
      "reat": 1013,
      "stay": 1014,
      "stories": 1015,
      "row": 1016,
      "\"\",": 1017,
      "ician": 1018,
      "cho": 1019,
      "chan": 1020,
      "process": 1021,
      "edback": 1022,
      "esta": 1023,
      "cover": 1024,
      "coach": 1025,
      "ationsh": 1026,
      "qual": 1027,
      "note": 1028,
      "summ": 1029,
      "cont": 1030,
      "convers": 1031,
      "show": 1032,
      "pect": 1033,
      "max": 1034,
      "uring": 1035,
      "accur": 1036,
      "writer": 1037,
      "written": 1038,
      "sim": 1039,
      "most": 1040,
      "world": 1041,
      "aph": 1042,
      "alleng": 1043,
      "artist": 1044,
      "engage": 1045,
      "havi": 1046,
      "speech": 1047,
      "developer": 1048,
      "putting": 1049,
      "Inter": 1050,
      "logist": 1051,
      "sition": 1052,
      "umn": 1053,
      "respond": 1054,
      "response": 1055,
      "object": 1056,
      "Provide": 1057,
      "technical": 1058,
      "avail": 1059,
      "ferences": 1060,
      "managing": 1061,
      "events": 1062,
      "letter": 1063,
      "study": 1064,
      "both": 1065,
      "board": 1066,
      "transl": 1067,
      "message": 1068,
      "learning": 1069,
      "composition": 1070,
      "import": 1071,
      "activities": 1072,
      "Buddha": 1073,
      "girl": 1074,
      "available": 1075,
      ".\"\"": 1076,
      "Ap": 1077,
      "How": 1078,
      "Hell": 1079,
      "IT": 1080,
      "Im": 1081,
      "Ke": 1082,
      "Python": 1083,
      "aut": 1084,
      "bers": 1085,
      "book": 1086,
      "cy": 1087,
      "cour": 1088,
      "date": 1089,
      "dream": 1090,
      "fi": 1091,
      "hand": 1092,
      "here": 1093,
      "ith": 1094,
      "ier": 1095,
      "jour": 1096,
      "ken": 1097,
      "long": 1098,
      "must": 1099,
      "pu": 1100,
      "page": 1101,
      "run": 1102,
      "sis": 1103,
      "sess": 1104,
      "tual": 1105,
      "treat": 1106,
      "ub": 1107,
      "uc": 1108,
      "uation": 1109,
      "intell": 1110,
      "atch": 1111,
      "atist": 1112,
      "orig": 1113,
      "enhance": 1114,
      "reci": 1115,
      "reach": 1116,
      "along": 1117,
      "ction": 1118,
      "del": 1119,
      "deli": 1120,
      "ism": 1121,
      "arr": 1122,
      "chitect": 1123,
      "challeng": 1124,
      "enter": 1125,
      "active": 1126,
      "without": 1127,
      "begin": 1128,
      "behavi": 1129,
      "term": 1130,
      "abil": 1131,
      "consider": 1132,
      "rity": 1133,
      "short": 1134,
      "unless": 1135,
      "making": 1136,
      "urant": 1137,
      "sign": 1138,
      "diag": 1139,
      "vert": 1140,
      "achie": 1141,
      "resources": 1142,
      "points": 1143,
      "comment": 1144,
      "ending": 1145,
      "format": 1146,
      "english": 1147,
      "ives": 1148,
      "someone": 1149,
      "opin": 1150,
      "speak": 1151,
      "clude": 1152,
      "core": 1153,
      "ize": 1154,
      "ization": 1155,
      "Include": 1156,
      "feat": 1157,
      "feedback": 1158,
      "relationsh": 1159,
      "philosoph": 1160,
      "brand": 1161,
      "current": 1162,
      "insights": 1163,
      "location": 1164,
      "serv": 1165,
      "visit": 1166,
      "lection": 1167,
      "lecture": 1168,
      "manage": 1169,
      "coming": 1170,
      "students": 1171,
      "better": 1172,
      "column": 1173,
      "curity": 1174,
      "describe": 1175,
      "numbers": 1176,
      "practical": 1177,
      "instructions": 1178,
      "career": 1179,
      "article": 1180,
      "Architect": 1181,
      "bullet": 1182,
      "discus": 1183,
      "thoughts": 1184,
      "statement": 1185,
      "motiv": 1186,
      "possible": 1187,
      "interpreter": 1188,
      "architectural": 1189,
      "recommendations": 1190,
      "build": 1191,
      "break": 1192,
      "piece": 1193,
      "communication": 1194,
      "solutions": 1195,
      "replies": 1196,
      "business": 1197,
      "SEO": 1198,
      "further": 1199,
      "scen": 1200,
      "target": 1201,
      "estaurant": 1202,
      "conversation": 1203,
      "accurate": 1204,
      "Hello": 1205,
      "intellig": 1206,
      "origin": 1207,
      ".,": 1208,
      "Be": 1209,
      "Book": 1210,
      "Clar": 1211,
      "Go": 1212,
      "Give": 1213,
      "Lan": 1214,
      "Make": 1215,
      "No": 1216,
      "Teach": 1217,
      "Wor": 1218,
      "Writ": 1219,
      "].": 1220,
      "ave": 1221,
      "ape": 1222,
      "aim": 1223,
      "bit": 1224,
      "bud": 1225,
      "call": 1226,
      "dent": 1227,
      "ditional": 1228,
      "during": 1229,
      "ew": 1230,
      "ets": 1231,
      "fut": 1232,
      "fil": 1233,
      "gle": 1234,
      "ili": 1235,
      "ji": 1236,
      "lun": 1237,
      "mist": 1238,
      "might": 1239,
      "next": 1240,
      "pa": 1241,
      "pur": 1242,
      "port": 1243,
      "pass": 1244,
      "ress": 1245,
      "she": 1246,
      "tur": 1247,
      "vo": 1248,
      "ved": 1249,
      "ward": 1250,
      "ye": 1251,
      "ys": 1252,
      "ancial": 1253,
      "anbul": 1254,
      "inci": 1255,
      "inue": 1256,
      "than": 1257,
      "onal": 1258,
      "err": 1259,
      "ates": 1260,
      "orical": 1261,
      "reg": 1262,
      "regular": 1263,
      "tomer": 1264,
      "als": 1265,
      "ales": 1266,
      "ite": 1267,
      "ason": 1268,
      "aspect": 1269,
      "ros": 1270,
      "deb": 1271,
      "decis": 1272,
      "ise": 1273,
      "chat": 1274,
      "chine": 1275,
      "promp": 1276,
      "proper": 1277,
      "educ": 1278,
      "fore": 1279,
      "offer": 1280,
      "exce": 1281,
      "exist": 1282,
      "set": 1283,
      "security": 1284,
      "sur": 1285,
      "suit": 1286,
      "beaut": 1287,
      "agin": 1288,
      "head": 1289,
      "cond": 1290,
      "contr": 1291,
      "contain": 1292,
      "concer": 1293,
      "concise": 1294,
      "share": 1295,
      "utrit": 1296,
      "peri": 1297,
      "perform": 1298,
      "yourself": 1299,
      "machine": 1300,
      "simple": 1301,
      "digit": 1302,
      "ulate": 1303,
      "ults": 1304,
      "needs": 1305,
      "ower": 1306,
      "explor": 1307,
      "helpful": 1308,
      "point": 1309,
      "imagin": 1310,
      "ety": 1311,
      "suggesting": 1312,
      "creen": 1313,
      "pronunci": 1314,
      "princi": 1315,
      "forms": 1316,
      "cript": 1317,
      "ionality": 1318,
      "gramm": 1319,
      "pretend": 1320,
      "izing": 1321,
      "ident": 1322,
      "answers": 1323,
      "Prompt": 1324,
      "tention": 1325,
      "overall": 1326,
      "arios": 1327,
      "concept": 1328,
      "keyword": 1329,
      "cape": 1330,
      "solving": 1331,
      "address": 1332,
      "look": 1333,
      "experienc": 1334,
      "space": 1335,
      "Trans": 1336,
      "ildren": 1337,
      "market": 1338,
      "assistant": 1339,
      "meaningful": 1340,
      "match": 1341,
      "video": 1342,
      "interesting": 1343,
      "Additional": 1344,
      "nony": 1345,
      "Socr": 1346,
      "patient": 1347,
      "mathematical": 1348,
      "functionality": 1349,
      "capt": 1350,
      "small": 1351,
      "those": 1352,
      "document": 1353,
      "Developer": 1354,
      "tags": 1355,
      "summary": 1356,
      "important": 1357,
      "Keep": 1358,
      "behavior": 1359,
      "ability": 1360,
      "diagno": 1361,
      "scenarios": 1362,
      "budget": 1363,
      "turn": 1364,
      "prompts": 1365,
      "concern": 1366,
      "digital": 1367,
      "Additionally": 1368,
      "Af": 1369,
      "Che": 1370,
      "Fr": 1371,
      "Ist": 1372,
      "Ma": 1373,
      "Man": 1374,
      "On": 1375,
      "Over": 1376,
      "Off": 1377,
      "Po": 1378,
      "Pers": 1379,
      "Str": 1380,
      "Software": 1381,
      "To": 1382,
      "We": 1383,
      "ather": 1384,
      "aid": 1385,
      "bil": 1386,
      "ck": 1387,
      "cas": 1388,
      "ds": 1389,
      "eded": 1390,
      "fest": 1391,
      "flo": 1392,
      "full": 1393,
      "high": 1394,
      "ides": 1395,
      "imple": 1396,
      "ibut": 1397,
      "js": 1398,
      "la": 1399,
      "length": 1400,
      "mit": 1401,
      "many": 1402,
      "ng": 1403,
      "nat": 1404,
      "nal": 1405,
      "none": 1406,
      "ners": 1407,
      "nutrit": 1408,
      "part": 1409,
      "past": 1410,
      "power": 1411,
      "rand": 1412,
      "right": 1413,
      "restaurant": 1414,
      "sources": 1415,
      "screen": 1416,
      "scape": 1417,
      "tion": 1418,
      "tic": 1419,
      "ted": 1420,
      "tone": 1421,
      "tics": 1422,
      "tips": 1423,
      "yle": 1424,
      "yet": 1425,
      "”\"": 1426,
      "another": 1427,
      "insp": 1428,
      "three": 1429,
      "think": 1430,
      "ater": 1431,
      "eness": 1432,
      "enough": 1433,
      "reh": 1434,
      "reason": 1435,
      "stance": 1436,
      "statist": 1437,
      "young": 1438,
      "iter": 1439,
      "ition": 1440,
      "\"\".": 1441,
      "promo": 1442,
      "edia": 1443,
      "mem": 1444,
      "plo": 1445,
      "plac": 1446,
      "place": 1447,
      "cost": 1448,
      "coding": 1449,
      "quer": 1450,
      "separ": 1451,
      "ager": 1452,
      "ague": 1453,
      "lot": 1454,
      "mpa": 1455,
      "needed": 1456,
      "terms": 1457,
      "sole": 1458,
      "social": 1459,
      "ligh": 1460,
      "lifest": 1461,
      "consu": 1462,
      "construct": 1463,
      "pet": 1464,
      "pert": 1465,
      "made": 1466,
      "outline": 1467,
      "direct": 1468,
      "diagram": 1469,
      "used": 1470,
      "model": 1471,
      "working": 1472,
      "appl": 1473,
      "apply": 1474,
      "application": 1475,
      "ular": 1476,
      "explore": 1477,
      "images": 1478,
      "upon": 1479,
      "clus": 1480,
      "priate": 1481,
      "taking": 1482,
      "ify": 1483,
      "ified": 1484,
      "compreh": 1485,
      "explanation": 1486,
      "speaking": 1487,
      "iptions": 1488,
      "preferences": 1489,
      "lank": 1490,
      "types": 1491,
      "situation": 1492,
      "responsible": 1493,
      "feel": 1494,
      "React": 1495,
      "phys": 1496,
      "Product": 1497,
      "customer": 1498,
      "structure": 1499,
      "find": 1500,
      "finding": 1501,
      "financial": 1502,
      "synony": 1503,
      "designing": 1504,
      "eval": 1505,
      "characters": 1506,
      "Anal": 1507,
      "Expert": 1508,
      "vessel": 1509,
      "progress": 1510,
      "appropriate": 1511,
      "descript": 1512,
      "descriptions": 1513,
      "ency": 1514,
      "practice": 1515,
      "expressions": 1516,
      "subject": 1517,
      "blic": 1518,
      "link": 1519,
      "mark": 1520,
      "messages": 1521,
      "reviewing": 1522,
      "version": 1523,
      "positive": 1524,
      "interpret": 1525,
      "architecture": 1526,
      "following": 1527,
      "ogies": 1528,
      "pieces": 1529,
      "startup": 1530,
      "depth": 1531,
      "depending": 1532,
      "engineering": 1533,
      "solution": 1534,
      "Leg": 1535,
      "history": 1536,
      "historical": 1537,
      "ensive": 1538,
      "style": 1539,
      "teacher": 1540,
      "websit": 1541,
      "involve": 1542,
      "client": 1543,
      "critic": 1544,
      "emoj": 1545,
      "layer": 1546,
      "healthy": 1547,
      "visuals": 1548,
      "Also": 1549,
      "Guide": 1550,
      "requirements": 1551,
      "ecut": 1552,
      "ethical": 1553,
      "music": 1554,
      "integr": 1555,
      "continue": 1556,
      "Application": 1557,
      "deliver": 1558,
      "achieve": 1559,
      "opinion": 1560,
      "discuss": 1561,
      "Language": 1562,
      "Teacher": 1563,
      "future": 1564,
      "lunatic": 1565,
      "password": 1566,
      "errors": 1567,
      "aspects": 1568,
      "excel": 1569,
      "period": 1570,
      "exploring": 1571,
      "principles": 1572,
      "After": 1573,
      "Istanbul": 1574,
      "implement": 1575,
      "natural": 1576,
      "lifestyle": 1577,
      "',": 1578,
      ",\"\"": 1579,
      "..": 1580,
      "100": 1581,
      "20": 1582,
      "Ask": 1583,
      "Can": 1584,
      "Crit": 1585,
      "Des": 1586,
      "Dat": 1587,
      "Fo": 1588,
      "Game": 1589,
      "Hel": 1590,
      "Ide": 1591,
      "Let": 1592,
      "Mus": 1593,
      "Sh": 1594,
      "She": 1595,
      "Spe": 1596,
      "Sol": 1597,
      "Tur": 1598,
      "Un": 1599,
      "],": 1600,
      "ax": 1601,
      "ait": 1602,
      "bi": 1603,
      "ball": 1604,
      "base": 1605,
      "blank": 1606,
      "car": 1607,
      "clo": 1608,
      "case": 1609,
      "ccess": 1610,
      "econ": 1611,
      "empt": 1612,
      "fa": 1613,
      "fie": 1614,
      "flow": 1615,
      "gy": 1616,
      "gor": 1617,
      "gen": 1618,
      "gre": 1619,
      "hi": 1620,
      "ht": 1621,
      "hy": 1622,
      "hum": 1623,
      "ily": 1624,
      "imm": 1625,
      "iend": 1626,
      "ious": 1627,
      "kish": 1628,
      "ls": 1629,
      "lt": 1630,
      "land": 1631,
      "last": 1632,
      "ning": 1633,
      "ps": 1634,
      "pack": 1635,
      "pain": 1636,
      "rics": 1637,
      "sto": 1638,
      "swer": 1639,
      "saf": 1640,
      "score": 1641,
      "tball": 1642,
      "ux": 1643,
      "wro": 1644,
      "wait": 1645,
      "ya": 1646,
      "āya": 1647,
      "anim": 1648,
      "anik": 1649,
      "anji": 1650,
      "inde": 1651,
      "inser": 1652,
      "indu": 1653,
      "thes": 1654,
      "ond": 1655,
      "onment": 1656,
      "online": 1657,
      "ontend": 1658,
      "ouse": 1659,
      "erial": 1660,
      "attention": 1661,
      "ening": 1662,
      "envir": 1663,
      "enef": 1664,
      "refer": 1665,
      "reposit": 1666,
      "repor": 1667,
      "reaction": 1668,
      "altern": 1669,
      "algor": 1670,
      "ionist": 1671,
      "ased": 1672,
      "asive": 1673,
      "asci": 1674,
      "asking": 1675,
      "roles": 1676,
      "dee": 1677,
      "demon": 1678,
      "leg": 1679,
      "lling": 1680,
      "ick": 1681,
      "icate": 1682,
      "icks": 1683,
      "icult": 1684,
      "aring": 1685,
      "argu": 1686,
      "chess": 1687,
      "chem": 1688,
      "children": 1689,
      "entific": 1690,
      "meas": 1691,
      "plat": 1692,
      "plot": 1693,
      "acting": 1694,
      "irm": 1695,
      "irting": 1696,
      "exer": 1697,
      "quiz": 1698,
      "quot": 1699,
      "vious": 1700,
      "see": 1701,
      "supp": 1702,
      "suasive": 1703,
      "ney": 1704,
      "abor": 1705,
      "conclus": 1706,
      "shape": 1707,
      "team": 1708,
      "utili": 1709,
      "lyrics": 1710,
      "persuasive": 1711,
      "mapp": 1712,
      "does": 1713,
      "domain": 1714,
      "access": 1715,
      "account": 1716,
      "acros": 1717,
      "adjust": 1718,
      "side": 1719,
      "sights": 1720,
      "sibil": 1721,
      "dict": 1722,
      "moder": 1723,
      "ules": 1724,
      "result": 1725,
      "results": 1726,
      "stress": 1727,
      "strating": 1728,
      "strength": 1729,
      "istic": 1730,
      "helping": 1731,
      "post": 1732,
      "posing": 1733,
      "commit": 1734,
      "image": 1735,
      "etit": 1736,
      "try": 1737,
      "trends": 1738,
      "things": 1739,
      "update": 1740,
      "upcoming": 1741,
      "cannot": 1742,
      "clar": 1743,
      "prim": 1744,
      "print": 1745,
      "iful": 1746,
      "ivity": 1747,
      "optim": 1748,
      "spect": 1749,
      "internet": 1750,
      "themes": 1751,
      "ool": 1752,
      "oogle": 1753,
      "craf": 1754,
      "graph": 1755,
      "corpor": 1756,
      "preter": 1757,
      "izer": 1758,
      "includes": 1759,
      "logical": 1760,
      "advis": 1761,
      "Request": 1762,
      "Remem": 1763,
      "informative": 1764,
      "php": 1765,
      "bring": 1766,
      "akes": 1767,
      "basic": 1768,
      "ief": 1769,
      "What": 1770,
      "Engine": 1771,
      "avo": 1772,
      "difficult": 1773,
      "DAX": 1774,
      "Stack": 1775,
      "campa": 1776,
      "solve": 1777,
      "improving": 1778,
      "knowledgeable": 1779,
      "giving": 1780,
      "single": 1781,
      "large": 1782,
      "student": 1783,
      "player": 1784,
      "playlist": 1785,
      "experiences": 1786,
      "Answer": 1787,
      "color": 1788,
      "Expl": 1789,
      "projects": 1790,
      "practices": 1791,
      "analogies": 1792,
      "substance": 1793,
      "blical": 1794,
      "lines": 1795,
      "media": 1796,
      "assistance": 1797,
      "complete": 1798,
      "material": 1799,
      "interests": 1800,
      "focuses": 1801,
      "Art": 1802,
      "thought": 1803,
      "Advis": 1804,
      "breaking": 1805,
      "drun": 1806,
      "duc": 1807,
      "science": 1808,
      "refine": 1809,
      "analysis": 1810,
      "presenting": 1811,
      "League": 1812,
      "Pract": 1813,
      "Pronunci": 1814,
      "factual": 1815,
      "factors": 1816,
      "value": 1817,
      "styles": 1818,
      "confident": 1819,
      "teaching": 1820,
      "guesses": 1821,
      "involved": 1822,
      "emotions": 1823,
      "times": 1824,
      "chool": 1825,
      "choose": 1826,
      "fitness": 1827,
      "virtual": 1828,
      "travel": 1829,
      "Creator": 1830,
      "flirting": 1831,
      "home": 1832,
      "routine": 1833,
      "staying": 1834,
      "chang": 1835,
      "quality": 1836,
      "Interpreter": 1837,
      "letters": 1838,
      "translate": 1839,
      "journey": 1840,
      "public": 1841,
      "session": 1842,
      "treatment": 1843,
      "recipes": 1844,
      "challenges": 1845,
      "signific": 1846,
      "features": 1847,
      "relationships": 1848,
      "services": 1849,
      "building": 1850,
      "intelligence": 1851,
      "original": 1852,
      "Clarif": 1853,
      "World": 1854,
      "mistakes": 1855,
      "paper": 1856,
      "year": 1857,
      "decisions": 1858,
      "offering": 1859,
      "beautiful": 1860,
      "pronunciations": 1861,
      "grammar": 1862,
      "experienced": 1863,
      "Personal": 1864,
      "Struct": 1865,
      "Web": 1866,
      "labe": 1867,
      "random": 1868,
      "inspire": 1869,
      "reasoning": 1870,
      "promote": 1871,
      "direction": 1872,
      "comprehensive": 1873,
      "physical": 1874,
      "synonyms": 1875,
      "evalu": 1876,
      "Analy": 1877,
      "description": 1878,
      "markdown": 1879,
      "Legends": 1880,
      "ecutive": 1881,
      "Critic": 1882,
      "Data": 1883,
      "Idea": 1884,
      "Turkish": 1885,
      "econom": 1886,
      "empty": 1887,
      "field": 1888,
      "genre": 1889,
      "htt": 1890,
      "ltant": 1891,
      "landscape": 1892,
      "wrote": 1893,
      "anikāya": 1894,
      "index": 1895,
      "industr": 1896,
      "environment": 1897,
      "algorith": 1898,
      "ascii": 1899,
      "arguments": 1900,
      "quotes": 1901,
      "support": 1902,
      "conclusions": 1903,
      "across": 1904,
      "sibilities": 1905,
      "modern": 1906,
      "Remember": 1907,
      "campaign": 1908,
      "'\"": 1909,
      "//": 1910,
      "://": 1911,
      "App": 1912,
      "Bre": 1913,
      "DE": 1914,
      "Di": 1915,
      "Don": 1916,
      "Each": 1917,
      "Educ": 1918,
      "Full": 1919,
      "Git": 1920,
      "Google": 1921,
      "He": 1922,
      "Hub": 1923,
      "IP": 1924,
      "JS": 1925,
      "Jap": 1926,
      "LP": 1927,
      "Lif": 1928,
      "Log": 1929,
      "Mo": 1930,
      "Mag": 1931,
      "Now": 1932,
      "New": 1933,
      "Ph": 1934,
      "Qu": 1935,
      "Rel": 1936,
      "SV": 1937,
      "Se": 1938,
      "Ser": 1939,
      "Sales": 1940,
      "Tu": 1941,
      "Tic": 1942,
      "Test": 1943,
      "Take": 1944,
      "Tool": 1945,
      "UI": 1946,
      "UX": 1947,
      "Wik": 1948,
      "]:": 1949,
      "ath": 1950,
      "ade": 1951,
      "avi": 1952,
      "ama": 1953,
      "aff": 1954,
      "avel": 1955,
      "bin": 1956,
      "bing": 1957,
      "bal": 1958,
      "benef": 1959,
      "cat": 1960,
      "cand": 1961,
      "cle": 1962,
      "cul": 1963,
      "cities": 1964,
      "cult": 1965,
      "din": 1966,
      "dish": 1967,
      "equ": 1968,
      "emp": 1969,
      "ever": 1970,
      "evid": 1971,
      "fac": 1972,
      "fam": 1973,
      "fect": 1974,
      "fill": 1975,
      "found": 1976,
      "free": 1977,
      "gation": 1978,
      "gency": 1979,
      "hon": 1980,
      "happ": 1981,
      "house": 1982,
      "iar": 1983,
      "iding": 1984,
      "jor": 1985,
      "jun": 1986,
      "kens": 1987,
      "lat": 1988,
      "ling": 1989,
      "lator": 1990,
      "ming": 1991,
      "mal": 1992,
      "mis": 1993,
      "mic": 1994,
      "ny": 1995,
      "oser": 1996,
      "ograph": 1997,
      "pand": 1998,
      "pir": 1999,
      "pare": 2000,
      "pace": 2001,
      "partic": 2002,
      "python": 2003,
      "rou": 2004,
      "ris": 2005,
      "sat": 2006,
      "spo": 2007,
      "send": 2008,
      "sour": 2009,
      "sort": 2010,
      "sales": 2011,
      "said": 2012,
      "school": 2013,
      "tab": 2014,
      "tful": 2015,
      "ume": 2016,
      "uter": 2017,
      "vent": 2018,
      "wr": 2019,
      "watch": 2020,
      "yes": 2021,
      "yond": 2022,
      "ank": 2023,
      "ances": 2024,
      "ange": 2025,
      "anese": 2026,
      "ancy": 2027,
      "ind": 2028,
      "incre": 2029,
      "inking": 2030,
      "incorpor": 2031,
      "thinking": 2032,
      "ont": 2033,
      "ouble": 2034,
      "erse": 2035,
      "attend": 2036,
      "atives": 2037,
      "ened": 2038,
      "react": 2039,
      "references": 2040,
      "return": 2041,
      "too": 2042,
      "toge": 2043,
      "toms": 2044,
      "tokens": 2045,
      "theories": 2046,
      "stack": 2047,
      "allow": 2048,
      "wit": 2049,
      "wish": 2050,
      "iting": 2051,
      "ital": 2052,
      "itial": 2053,
      "ash": 2054,
      "asligh": 2055,
      "room": 2056,
      "dete": 2057,
      "decor": 2058,
      "isis": 2059,
      "lead": 2060,
      "icious": 2061,
      "arding": 2062,
      "around": 2063,
      "ches": 2064,
      "estion": 2065,
      "entist": 2066,
      "forward": 2067,
      "actions": 2068,
      "exts": 2069,
      "exhi": 2070,
      "expand": 2071,
      "wants": 2072,
      "sever": 2073,
      "search": 2074,
      "section": 2075,
      "success": 2076,
      "beli": 2077,
      "before": 2078,
      "beyond": 2079,
      "aged": 2080,
      "agine": 2081,
      "agiar": 2082,
      "mposer": 2083,
      "mptoms": 2084,
      "near": 2085,
      "soci": 2086,
      "ately": 2087,
      "YouTu": 2088,
      "keting": 2089,
      "living": 2090,
      "conve": 2091,
      "conver": 2092,
      "context": 2093,
      "console": 2094,
      "sharing": 2095,
      "utor": 2096,
      "perfect": 2097,
      "provides": 2098,
      "unt": 2099,
      "major": 2100,
      "doctor": 2101,
      "url": 2102,
      "why": 2103,
      "notation": 2104,
      "acy": 2105,
      "acci": 2106,
      "aditional": 2107,
      "advert": 2108,
      "size": 2109,
      "did": 2110,
      "dif": 2111,
      "dial": 2112,
      "guides": 2113,
      "users": 2114,
      "modif": 2115,
      "mental": 2116,
      "aps": 2117,
      "appe": 2118,
      "myself": 2119,
      "resume": 2120,
      "own": 2121,
      "stru": 2122,
      "strong": 2123,
      "polit": 2124,
      "ically": 2125,
      "comments": 2126,
      "eting": 2127,
      "creat": 2128,
      "trac": 2129,
      "train": 2130,
      "trying": 2131,
      "tricks": 2132,
      "traditional": 2133,
      "therap": 2134,
      "claim": 2135,
      "aller": 2136,
      "artific": 2137,
      "formul": 2138,
      "Doctor": 2139,
      "take": 2140,
      "wers": 2141,
      "computer": 2142,
      "somebody": 2143,
      "open": 2144,
      "ffic": 2145,
      "spelling": 2146,
      "interview": 2147,
      "interviewer": 2148,
      "interactive": 2149,
      "weather": 2150,
      "energy": 2151,
      "ood": 2152,
      "cru": 2153,
      "crisis": 2154,
      "iple": 2155,
      "ipedia": 2156,
      "ground": 2157,
      "previous": 2158,
      "predict": 2159,
      "prepare": 2160,
      "Inst": 2161,
      "Input": 2162,
      "typ": 2163,
      "idea": 2164,
      "logic": 2165,
      "responding": 2166,
      "few": 2167,
      "minal": 2168,
      "going": 2169,
      "understandable": 2170,
      "works": 2171,
      "workshe": 2172,
      "aka": 2173,
      "insigh": 2174,
      "series": 2175,
      "charts": 2176,
      "aving": 2177,
      "two": 2178,
      "Then": 2179,
      "sycho": 2180,
      "symptoms": 2181,
      "keywords": 2182,
      "Comm": 2183,
      "Composer": 2184,
      "emplo": 2185,
      "event": 2186,
      "gives": 2187,
      "cises": 2188,
      "justice": 2189,
      "And": 2190,
      "collect": 2191,
      "collection": 2192,
      "aster": 2193,
      "tasked": 2194,
      "program": 2195,
      "transport": 2196,
      "Try": 2197,
      "Travel": 2198,
      "invest": 2199,
      "expression": 2200,
      "submit": 2201,
      "blue": 2202,
      "funny": 2203,
      "marketing": 2204,
      "assisting": 2205,
      "explaining": 2206,
      "taining": 2207,
      "Consider": 2208,
      "position": 2209,
      "therefore": 2210,
      "articles": 2211,
      "expertise": 2212,
      "improvements": 2213,
      "friend": 2214,
      "front": 2215,
      "tests": 2216,
      "atician": 2217,
      "motion": 2218,
      "composer": 2219,
      "braces": 2220,
      "certain": 2221,
      "scientific": 2222,
      "reflect": 2223,
      "engineer": 2224,
      "analyze": 2225,
      "called": 2226,
      "calcul": 2227,
      "nesses": 2228,
      "valu": 2229,
      "valid": 2230,
      "confirm": 2231,
      "clients": 2232,
      "pattern": 2233,
      "replace": 2234,
      "specialist": 2235,
      "numbered": 2236,
      "functions": 2237,
      "Guess": 2238,
      "everyone": 2239,
      "smart": 2240,
      "organizing": 2241,
      "network": 2242,
      "documents": 2243,
      "accordingly": 2244,
      "traffic": 2245,
      "songs": 2246,
      "Develop": 2247,
      "Create": 2248,
      "food": 2249,
      "football": 2250,
      "liter": 2251,
      "musical": 2252,
      "routes": 2253,
      "talk": 2254,
      "choice": 2255,
      "covering": 2256,
      "maxim": 2257,
      "simply": 2258,
      "artists": 2259,
      "Impro": 2260,
      "Imagine": 2261,
      "cyber": 2262,
      "courage": 2263,
      "fiction": 2264,
      "handle": 2265,
      "journal": 2266,
      "treatments": 2267,
      "reaching": 2268,
      "entertaining": 2269,
      "beginners": 2270,
      "commentary": 2271,
      "speaker": 2272,
      "feature": 2273,
      "relationship": 2274,
      "philosophy": 2275,
      "philosophical": 2276,
      "branding": 2277,
      "management": 2278,
      "motivated": 2279,
      "intelligent": 2280,
      "Write": 2281,
      "calling": 2282,
      "ewable": 2283,
      "pursu": 2284,
      "regarding": 2285,
      "items": 2286,
      "debate": 2287,
      "educational": 2288,
      "suitable": 2289,
      "headings": 2290,
      "contract": 2291,
      "contribut": 2292,
      "contains": 2293,
      "performance": 2294,
      "imaginative": 2295,
      "Translator": 2296,
      "Socrat": 2297,
      "Socratic": 2298,
      "captiv": 2299,
      "documentation": 2300,
      "concerns": 2301,
      "Frontend": 2302,
      "Manager": 2303,
      "Once": 2304,
      "Overflow": 2305,
      "Offer": 2306,
      "cker": 2307,
      "cases": 2308,
      "fully": 2309,
      "powerful": 2310,
      "statistics": 2311,
      "queries": 2312,
      "consultant": 2313,
      "applic": 2314,
      "Products": 2315,
      "website": 2316,
      "emojis": 2317,
      "integrate": 2318,
      "Focus": 2319,
      "Helper": 2320,
      "Muslim": 2321,
      "Solr": 2322,
      "biblical": 2323,
      "immerse": 2324,
      "package": 2325,
      "safety": 2326,
      "thesis": 2327,
      "repository": 2328,
      "alternatives": 2329,
      "deeper": 2330,
      "demonstrating": 2331,
      "chemical": 2332,
      "measures": 2333,
      "utilize": 2334,
      "strengths": 2335,
      "primary": 2336,
      "crafting": 2337,
      "advisor": 2338,
      "avoid": 2339,
      "StackOverflow": 2340,
      "Artist": 2341,
      "Advisor": 2342,
      "Practical": 2343,
      "significant": 2344,
      "Clarifier": 2345,
      "Structure": 2346,
      "https": 2347,
      "Break": 2348,
      "GitHub": 2349,
      "Japanese": 2350,
      "Life": 2351,
      "Question": 2352,
      "SVG": 2353,
      "Wikipedia": 2354,
      "avigation": 2355,
      "candid": 2356,
      "cultural": 2357,
      "evidence": 2358,
      "honest": 2359,
      "latest": 2360,
      "particular": 2361,
      "tables": 2362,
      "attending": 2363,
      "together": 2364,
      "agiarism": 2365,
      "YouTube": 2366,
      "accident": 2367,
      "artificial": 2368,
      "worksheets": 2369,
      "transportation": 2370,
      "calculating": 2371,
      "\"`": 2372,
      "')": 2373,
      "'.": 2374,
      "('": 2375,
      "),": 2376,
      ");": 2377,
      ")\",\"": 2378,
      "13": 2379,
      "15": 2380,
      "18": 2381,
      "='": 2382,
      "A0": 2383,
      "AB": 2384,
      "Ac": 2385,
      "Avo": 2386,
      "Best": 2387,
      "But": 2388,
      "Based": 2389,
      "Cl": 2390,
      "Cal": 2391,
      "Car": 2392,
      "Care": 2393,
      "Crun": 2394,
      "DI": 2395,
      "Dim": 2396,
      "Ethere": 2397,
      "Fe": 2398,
      "Fin": 2399,
      "Fact": 2400,
      "Fill": 2401,
      "HP": 2402,
      "Hi": 2403,
      "Hist": 2404,
      "Here": 2405,
      "It": 2406,
      "Jour": 2407,
      "Jav": 2408,
      "Ki": 2409,
      "Kanji": 2410,
      "LE": 2411,
      "Lin": 2412,
      "Lat": 2413,
      "Link": 2414,
      "Ment": 2415,
      "Mid": 2416,
      "Mot": 2417,
      "Media": 2418,
      "Maps": 2419,
      "Master": 2420,
      "OK": 2421,
      "ON": 2422,
      "One": 2423,
      "Other": 2424,
      "Own": 2425,
      "PI": 2426,
      "PR": 2427,
      "Player": 2428,
      "PHP": 2429,
      "QL": 2430,
      "Res": 2431,
      "Ren": 2432,
      "Rese": 2433,
      "Restaurant": 2434,
      "SI": 2435,
      "Sy": 2436,
      "Sen": 2437,
      "Sci": 2438,
      "Spon": 2439,
      "Sty": 2440,
      "Search": 2441,
      "SLP": 2442,
      "SQL": 2443,
      "Te": 2444,
      "Ter": 2445,
      "Tal": 2446,
      "Tit": 2447,
      "Tac": 2448,
      "Twit": 2449,
      "Uti": 2450,
      "Using": 2451,
      "Vir": 2452,
      "Want": 2453,
      "Way": 2454,
      "Yes": 2455,
      "[].": 2456,
      "](": 2457,
      "aes": 2458,
      "aic": 2459,
      "away": 2460,
      "bes": 2461,
      "bro": 2462,
      "bir": 2463,
      "bab": 2464,
      "bob": 2465,
      "bile": 2466,
      "brow": 2467,
      "cs": 2468,
      "ced": 2469,
      "cent": 2470,
      "cine": 2471,
      "cure": 2472,
      "catch": 2473,
      "carr": 2474,
      "dest": 2475,
      "ei": 2476,
      "ees": 2477,
      "eve": 2478,
      "eap": 2479,
      "ems": 2480,
      "ecu": 2481,
      "emot": 2482,
      "eleg": 2483,
      "fal": 2484,
      "far": 2485,
      "five": 2486,
      "fall": 2487,
      "fish": 2488,
      "fits": 2489,
      "face": 2490,
      "file": 2491,
      "fessional": 2492,
      "fying": 2493,
      "fancy": 2494,
      "fash": 2495,
      "gi": 2496,
      "gs": 2497,
      "gon": 2498,
      "ger": 2499,
      "gative": 2500,
      "gave": 2501,
      "gasligh": 2502,
      "han": 2503,
      "her": 2504,
      "hor": 2505,
      "har": 2506,
      "hab": 2507,
      "him": 2508,
      "hall": 2509,
      "hour": 2510,
      "hyth": 2511,
      "iṭ": 2512,
      "ict": 2513,
      "ima": 2514,
      "igu": 2515,
      "ible": 2516,
      "jav": 2517,
      "ku": 2518,
      "kes": 2519,
      "kanji": 2520,
      "lap": 2521,
      "llect": 2522,
      "law": 2523,
      "labor": 2524,
      "mult": 2525,
      "mician": 2526,
      "nam": 2527,
      "navigation": 2528,
      "old": 2529,
      "ots": 2530,
      "ology": 2531,
      "pen": 2532,
      "pno": 2533,
      "pages": 2534,
      "psycho": 2535,
      "rap": 2536,
      "riv": 2537,
      "rary": 2538,
      "rich": 2539,
      "round": 2540,
      "rather": 2541,
      "rules": 2542,
      "rhyth": 2543,
      "sen": 2544,
      "scr": 2545,
      "sph": 2546,
      "sav": 2547,
      "sample": 2548,
      "sound": 2549,
      "save": 2550,
      "tes": 2551,
      "tro": 2552,
      "tle": 2553,
      "tap": 2554,
      "tical": 2555,
      "tutor": 2556,
      "ush": 2557,
      "uenc": 2558,
      "vy": 2559,
      "xim": 2560,
      "yed": 2561,
      "ysit": 2562,
      "yog": 2563,
      "zing": 2564,
      "zation": 2565,
      "}\"": 2566,
      "}.\"\"\"": 2567,
      "ang": 2568,
      "an13": 2569,
      "inf": 2570,
      "ines": 2571,
      "inqu": 2572,
      "inations": 2573,
      "intr": 2574,
      "inline": 2575,
      "infl": 2576,
      "initial": 2577,
      "instru": 2578,
      "onet": 2579,
      "oust": 2580,
      "ergency": 2581,
      "atte": 2582,
      "atmo": 2583,
      "atable": 2584,
      "orist": 2585,
      "orian": 2586,
      "orism": 2587,
      "ender": 2588,
      "enable": 2589,
      "ended": 2590,
      "ensur": 2591,
      "enrich": 2592,
      "reve": 2593,
      "reco": 2594,
      "remain": 2595,
      "reviewer": 2596,
      "reward": 2597,
      "tom": 2598,
      "tomo": 2599,
      "town": 2600,
      "theory": 2601,
      "thetic": 2602,
      "stu": 2603,
      "ster": 2604,
      "sting": 2605,
      "stut": 2606,
      "stain": 2607,
      "stwriter": 2608,
      "aling": 2609,
      "alet": 2610,
      "alge": 2611,
      "align": 2612,
      "alloc": 2613,
      "always": 2614,
      "wise": 2615,
      "itor": 2616,
      "itar": 2617,
      "ited": 2618,
      "itation": 2619,
      "itly": 2620,
      "itive": 2621,
      "itions": 2622,
      "itating": 2623,
      "assu": 2624,
      "aset": 2625,
      "ascript": 2626,
      "aspir": 2627,
      "associ": 2628,
      "rolog": 2629,
      "determin": 2630,
      "determ": 2631,
      "deplo": 2632,
      "isn": 2633,
      "iser": 2634,
      "least": 2635,
      "leaving": 2636,
      "llabor": 2637,
      "icer": 2638,
      "icial": 2639,
      "icitly": 2640,
      "arn": 2641,
      "ars": 2642,
      "aris": 2643,
      "arbit": 2644,
      "areness": 2645,
      "arizer": 2646,
      "argon": 2647,
      "chor": 2648,
      "chest": 2649,
      "chain": 2650,
      "chec": 2651,
      "cheap": 2652,
      "proto": 2653,
      "proof": 2654,
      "proce": 2655,
      "proach": 2656,
      "edin": 2657,
      "estab": 2658,
      "estim": 2659,
      "velist": 2660,
      "veget": 2661,
      "meeting": 2662,
      "plies": 2663,
      "plans": 2664,
      "plified": 2665,
      "plagiarism": 2666,
      "fort": 2667,
      "cok": 2668,
      "cop": 2669,
      "codes": 2670,
      "collabor": 2671,
      "ird": 2672,
      "iry": 2673,
      "ires": 2674,
      "exam": 2675,
      "excep": 2676,
      "extern": 2677,
      "executive": 2678,
      "execu": 2679,
      "quick": 2680,
      "via": 2681,
      "node": 2682,
      "nodes": 2683,
      "nomist": 2684,
      "sea": 2685,
      "sequ": 2686,
      "second": 2687,
      "secure": 2688,
      "suha": 2689,
      "suff": 2690,
      "susp": 2691,
      "sustain": 2692,
      "beat": 2693,
      "become": 2694,
      "agent": 2695,
      "aggr": 2696,
      "agree": 2697,
      "load": 2698,
      "lower": 2699,
      "losing": 2700,
      "cell": 2701,
      "lder": 2702,
      "neat": 2703,
      "nect": 2704,
      "nels": 2705,
      "negative": 2706,
      "tering": 2707,
      "ession": 2708,
      "essay": 2709,
      "het": 2710,
      "kemon": 2711,
      "lict": 2712,
      "abase": 2713,
      "conduct": 2714,
      "consist": 2715,
      "consci": 2716,
      "convert": 2717,
      "convent": 2718,
      "connect": 2719,
      "sha": 2720,
      "ship": 2721,
      "shan13": 2722,
      "tea": 2723,
      "teeth": 2724,
      "utic": 2725,
      "utable": 2726,
      "utionist": 2727,
      "perspect": 2728,
      "uncovering": 2729,
      "ively": 2730,
      "mac": 2731,
      "map": 2732,
      "door": 2733,
      "docker": 2734,
      "docs": 2735,
      "outside": 2736,
      "outfits": 2737,
      "outdoor": 2738,
      "white": 2739,
      "acade": 2740,
      "adap": 2741,
      "admin": 2742,
      "added": 2743,
      "adults": 2744,
      "writes": 2745,
      "area": 2746,
      "areas": 2747,
      "aye": 2748,
      "ays": 2749,
      "dies": 2750,
      "gure": 2751,
      "guages": 2752,
      "guiding": 2753,
      "mod": 2754,
      "modu": 2755,
      "mologist": 2756,
      "moku": 2757,
      "mentor": 2758,
      "ulti": 2759,
      "reson": 2760,
      "owner": 2761,
      "explicitly": 2762,
      "string": 2763,
      "stration": 2764,
      "strict": 2765,
      "among": 2766,
      "pop": 2767,
      "pose": 2768,
      "poem": 2769,
      "commer": 2770,
      "etary": 2771,
      "etings": 2772,
      "creator": 2773,
      "endar": 2774,
      "therape": 2775,
      "upd": 2776,
      "prices": 2777,
      "artwork": 2778,
      "formal": 2779,
      "desire": 2780,
      "ilar": 2781,
      "ilrou": 2782,
      "Domain": 2783,
      "takes": 2784,
      "ivational": 2785,
      "iveness": 2786,
      "compare": 2787,
      "compell": 2788,
      "competit": 2789,
      "opper": 2790,
      "option": 2791,
      "opposing": 2792,
      "amework": 2793,
      "igate": 2794,
      "intermed": 2795,
      "useful": 2796,
      "weak": 2797,
      "mptions": 2798,
      "asks": 2799,
      "asked": 2800,
      "cribe": 2801,
      "gebob": 2802,
      "atory": 2803,
      "corresponding": 2804,
      "precise": 2805,
      "izers": 2806,
      "lang": 2807,
      "Insights": 2808,
      "Intro": 2809,
      "typos": 2810,
      "idence": 2811,
      "standard": 2812,
      "logies": 2813,
      "answering": 2814,
      "sity": 2815,
      "advise": 2816,
      "understo": 2817,
      "ums": 2818,
      "nowledge": 2819,
      "responsibilities": 2820,
      "lists": 2821,
      "Encourage": 2822,
      "Enhan": 2823,
      "Reg": 2824,
      "Real": 2825,
      "Reply": 2826,
      "Review": 2827,
      "Reviewer": 2828,
      "Replies": 2829,
      "relax": 2830,
      "relatable": 2831,
      "teller": 2832,
      "phonet": 2833,
      "brief": 2834,
      "braic": 2835,
      "general": 2836,
      "generated": 2837,
      "Project": 2838,
      "Professional": 2839,
      "included": 2840,
      "news": 2841,
      "questioning": 2842,
      "local": 2843,
      "locutionist": 2844,
      "dates": 2845,
      "dataset": 2846,
      "database": 2847,
      "overly": 2848,
      "arian": 2849,
      "ariat": 2850,
      "ategories": 2851,
      "These": 2852,
      "finder": 2853,
      "ferer": 2854,
      "ference": 2855,
      "designs": 2856,
      "designer": 2857,
      "Come": 2858,
      "Stay": 2859,
      "Statist": 2860,
      "emergency": 2861,
      "manner": 2862,
      "manager": 2863,
      "comma": 2864,
      "combin": 2865,
      "comfort": 2866,
      "improver": 2867,
      "improved": 2868,
      "background": 2869,
      "even": 2870,
      "selor": 2871,
      "whenever": 2872,
      "strategy": 2873,
      "strategic": 2874,
      "iano": 2875,
      "planner": 2876,
      "playing": 2877,
      "looks": 2878,
      "Any": 2879,
      "Angular": 2880,
      "skin": 2881,
      "Example": 2882,
      "Examples": 2883,
      "Executive": 2884,
      "terminology": 2885,
      "download": 2886,
      "approxim": 2887,
      "Children": 2888,
      "Chief": 2889,
      "hasize": 2890,
      "specified": 2891,
      "links": 2892,
      "linux": 2893,
      "medical": 2894,
      "meditation": 2895,
      "effects": 2896,
      "effectiveness": 2897,
      "individuals": 2898,
      "Cont": 2899,
      "Conch": 2900,
      "Generate": 2901,
      "carefully": 2902,
      "easily": 2903,
      "matograph": 2904,
      "titles": 2905,
      "positions": 2906,
      "interested": 2907,
      "correction": 2908,
      "corrected": 2909,
      "focusing": 2910,
      "improvement": 2911,
      "Deb": 2912,
      "framework": 2913,
      "testing": 2914,
      "apping": 2915,
      "possibilities": 2916,
      "ifications": 2917,
      "followed": 2918,
      "blockchain": 2919,
      "000": 2920,
      "awak": 2921,
      "awareness": 2922,
      "draw": 2923,
      "duce": 2924,
      "reflection": 2925,
      "agraph": 2926,
      "maintain": 2927,
      "guidelines": 2928,
      "researching": 2929,
      "community": 2930,
      "communicate": 2931,
      "wellbeing": 2932,
      "analytics": 2933,
      "presentation": 2934,
      "calories": 2935,
      "facts": 2936,
      "impact": 2937,
      "parts": 2938,
      "paragraph": 2939,
      "ension": 2940,
      "reader": 2941,
      "readers": 2942,
      "assical": 2943,
      "conflict": 2944,
      "confidence": 2945,
      "contents": 2946,
      "approaches": 2947,
      "effectively": 2948,
      "Social": 2949,
      "critical": 2950,
      "choosing": 2951,
      "products": 2952,
      "healthier": 2953,
      "mathematician": 2954,
      "viewers": 2955,
      "specialized": 2956,
      "specializing": 2957,
      "visualization": 2958,
      "personalized": 2959,
      "Assist": 2960,
      "Technology": 2961,
      "capital": 2962,
      "everyday": 2963,
      "thologist": 2964,
      "organize": 2965,
      "organization": 2966,
      "realistic": 2967,
      "levels": 2968,
      "actionable": 2969,
      "Startup": 2970,
      "required": 2971,
      "foods": 2972,
      "renewable": 2973,
      "tales": 2974,
      "intellect": 2975,
      "chose": 2976,
      "channels": 2977,
      "qualified": 2978,
      "contexts": 2979,
      "simplified": 2980,
      "similar": 2981,
      "objects": 2982,
      "translations": 2983,
      "translator": 2984,
      "importance": 2985,
      "Approach": 2986,
      "course": 2987,
      "courses": 2988,
      "dreams": 2989,
      "figure": 2990,
      "ithub": 2991,
      "push": 2992,
      "sessions": 2993,
      "recipe": 2994,
      "challenging": 2995,
      "achieving": 2996,
      "opinions": 2997,
      "service": 2998,
      "Architectural": 2999,
      "discussing": 3000,
      "motivational": 3001,
      "targeting": 3002,
      "accurately": 3003,
      "Gomoku": 3004,
      "Golang": 3005,
      "Writer": 3006,
      "film": 3007,
      "files": 3008,
      "filled": 3009,
      "iliar": 3010,
      "purpose": 3011,
      "sheet": 3012,
      "voice": 3013,
      "regex": 3014,
      "decision": 3015,
      "surance": 3016,
      "beauty": 3017,
      "conditions": 3018,
      "imaginary": 3019,
      "pronunciation": 3020,
      "looked": 3021,
      "experiencing": 3022,
      "Transferer": 3023,
      "matches": 3024,
      "capture": 3025,
      "smaller": 3026,
      "diagnose": 3027,
      "diagnosing": 3028,
      "diagnosis": 3029,
      "turns": 3030,
      "Chef": 3031,
      "Mathem": 3032,
      "Only": 3033,
      "Officer": 3034,
      "Post": 3035,
      "Toe": 3036,
      "flowers": 3037,
      "mitigate": 3038,
      "nutrition": 3039,
      "nutritional": 3040,
      "partner": 3041,
      "paste": 3042,
      "screensh": 3043,
      "ticket": 3044,
      "statistical": 3045,
      "iterative": 3046,
      "places": 3047,
      "placed": 3048,
      "query": 3049,
      "separate": 3050,
      "separated": 3051,
      "light": 3052,
      "construction": 3053,
      "diagrams": 3054,
      "applied": 3055,
      "structured": 3056,
      "linkedin": 3057,
      "interpretations": 3058,
      "websites": 3059,
      "emojees": 3060,
      "layered": 3061,
      "delivering": 3062,
      "discussed": 3063,
      "periods": 3064,
      "implementing": 3065,
      "...": 3066,
      "Design": 3067,
      "Describe": 3068,
      "Share": 3069,
      "Shell": 3070,
      "green": 3071,
      "greetings": 3072,
      "hypo": 3073,
      "human": 3074,
      "painting": 3075,
      "stock": 3076,
      "animal": 3077,
      "animals": 3078,
      "reference": 3079,
      "reports": 3080,
      "reporting": 3081,
      "legal": 3082,
      "platform": 3083,
      "platforms": 3084,
      "exercise": 3085,
      "exercises": 3086,
      "seeking": 3087,
      "mapping": 3088,
      "mapped": 3089,
      "accessible": 3090,
      "adjustments": 3091,
      "etitian": 3092,
      "optimized": 3093,
      "optimization": 3094,
      "Engineer": 3095,
      "Explain": 3096,
      "materials": 3097,
      "drunk": 3098,
      "drunken": 3099,
      "Pronunciation": 3100,
      "Pronunciations": 3101,
      "changes": 3102,
      "changed": 3103,
      "labels": 3104,
      "randomly": 3105,
      "evaluate": 3106,
      "Analyst": 3107,
      "economic": 3108,
      "fields": 3109,
      "industries": 3110,
      "algorithm": 3111,
      "algorithms": 3112,
      "supportive": 3113,
      "Diagram": 3114,
      "Educational": 3115,
      "Fully": 3116,
      "Hey": 3117,
      "JSON": 3118,
      "Movie": 3119,
      "Magic": 3120,
      "News": 3121,
      "Philosoph": 3122,
      "Relations": 3123,
      "Tester": 3124,
      "beneficial": 3125,
      "dinner": 3126,
      "dishes": 3127,
      "equations": 3128,
      "facil": 3129,
      "familiar": 3130,
      "happened": 3131,
      "junior": 3132,
      "risk": 3133,
      "satis": 3134,
      "spoken": 3135,
      "source": 3136,
      "wrapping": 3137,
      "increase": 3138,
      "incorporate": 3139,
      "detect": 3140,
      "decorative": 3141,
      "exhibit": 3142,
      "severe": 3143,
      "believe": 3144,
      "convey": 3145,
      "converting": 3146,
      "until": 3147,
      "modify": 3148,
      "appear": 3149,
      "creativity": 3150,
      "tracking": 3151,
      "therapist": 3152,
      "allery": 3153,
      "formulas": 3154,
      "cruiter": 3155,
      "predictions": 3156,
      "Instagram": 3157,
      "typing": 3158,
      "insightful": 3159,
      "Comment": 3160,
      "submitted": 3161,
      "blueprint": 3162,
      "valuable": 3163,
      "patterns": 3164,
      "Development": 3165,
      "literary": 3166,
      "maximum": 3167,
      "Improver": 3168,
      "cybersecurity": 3169,
      "pursuing": 3170,
      "contribution": 3171,
      "captivating": 3172,
      "candidate": 3173,
      "Avoid": 3174,
      "Calendar": 3175,
      "Career": 3176,
      "Crunch": 3177,
      "DIY": 3178,
      "Dimension": 3179,
      "Ethereum": 3180,
      "Journal": 3181,
      "Java": 3182,
      "Kiel": 3183,
      "Latin": 3184,
      "Midjourney": 3185,
      "Motivational": 3186,
      "OneWay": 3187,
      "Owner": 3188,
      "PRD": 3189,
      "Respon": 3190,
      "Research": 3191,
      "Senior": 3192,
      "Spongebob": 3193,
      "Terminal": 3194,
      "Talent": 3195,
      "Title": 3196,
      "Twitter": 3197,
      "Utili": 3198,
      "Virtual": 3199,
      "besides": 3200,
      "birth": 3201,
      "cinematograph": 3202,
      "catchy": 3203,
      "carry": 3204,
      "either": 3205,
      "emotional": 3206,
      "elegant": 3207,
      "false": 3208,
      "fashion": 3209,
      "habits": 3210,
      "iṭaka": 3211,
      "imam": 3212,
      "iguing": 3213,
      "javascript": 3214,
      "laws": 3215,
      "multiple": 3216,
      "named": 3217,
      "pnotherapist": 3218,
      "scratch": 3219,
      "uencer": 3220,
      "ysitter": 3221,
      "intriguing": 3222,
      "oustic": 3223,
      "attempt": 3224,
      "atmosph": 3225,
      "enabled": 3226,
      "ensuring": 3227,
      "reveal": 3228,
      "stuttering": 3229,
      "algebraic": 3230,
      "assumptions": 3231,
      "associated": 3232,
      "rologer": 3233,
      "determining": 3234,
      "determine": 3235,
      "arbitrary": 3236,
      "proceed": 3237,
      "establish": 3238,
      "vegetarian": 3239,
      "external": 3240,
      "execute": 3241,
      "suhailrou": 3242,
      "suffering": 3243,
      "agreement": 3244,
      "lowercase": 3245,
      "conscious": 3246,
      "conventional": 3247,
      "module": 3248,
      "strictly": 3249,
      "therapeutic": 3250,
      "compelling": 3251,
      "competitors": 3252,
      "intermediate": 3253,
      "weaknesses": 3254,
      "standards": 3255,
      "understood": 3256,
      "Enhancer": 3257,
      "relaxation": 3258,
      "phonetics": 3259,
      "Statistician": 3260,
      "capitalized": 3261,
      "intellectual": 3262,
      "cinematography": 3263,
      "suhailroushan13": 3264,
      "!\"\"": 3265,
      "!\"\"\"": 3266,
      "!')": 3267,
      "'.\"\"\"": 3268,
      "'}.": 3269,
      "(\"\"": 3270,
      "().": 3271,
      "();": 3272,
      ")\"": 3273,
      ")\"\"\"": 3274,
      "+:": 3275,
      ".).": 3276,
      ".”\"": 3277,
      "0th": 3278,
      "11": 3279,
      "12": 3280,
      "1st": 3281,
      "24": 3282,
      "25": 3283,
      "200": 3284,
      "30": 3285,
      "34": 3286,
      "35": 3287,
      "400": 3288,
      "56": 3289,
      "500": 3290,
      "50th": 3291,
      "64": 3292,
      "78": 3293,
      "800": 3294,
      "9B": 3295,
      "9x": 3296,
      ":\"": 3297,
      ":\",\"": 3298,
      "<?": 3299,
      "?\"\"": 3300,
      "?\"\".\"": 3301,
      "?”\"": 3302,
      "?],": 3303,
      "?'\"": 3304,
      "AQ": 3305,
      "Ag": 3306,
      "Ak": 3307,
      "At": 3308,
      "Au": 3309,
      "Aṅ": 3310,
      "Ast": 3311,
      "Aph": 3312,
      "Aca": 3313,
      "Asci": 3314,
      "Amer": 3315,
      "API": 3316,
      "BY": 3317,
      "Bi": 3318,
      "Bo": 3319,
      "Bu": 3320,
      "Bas": 3321,
      "Bab": 3322,
      "Back": 3323,
      "Brow": 3324,
      "Barr": 3325,
      "Brand": 3326,
      "Blank": 3327,
      "Benef": 3328,
      "CM": 3329,
      "CO": 3330,
      "CT": 3331,
      "CV": 3332,
      "Cr": 3333,
      "Cy": 3334,
      "Could": 3335,
      "Cur": 3336,
      "Cus": 3337,
      "Chel": 3338,
      "Call": 3339,
      "Col": 3340,
      "Coun": 3341,
      "Cover": 3342,
      "Clim": 3343,
      "Cave": 3344,
      "CDE": 3345,
      "Categories": 3346,
      "D5": 3347,
      "DO": 3348,
      "Dī": 3349,
      "Den": 3350,
      "Det": 3351,
      "Dig": 3352,
      "Dep": 3353,
      "Dream": 3354,
      "Drun": 3355,
      "Double": 3356,
      "Dentist": 3357,
      "Dhar": 3358,
      "EV": 3359,
      "EW": 3360,
      "Ep": 3361,
      "Es": 3362,
      "Emp": 3363,
      "Emo": 3364,
      "Empt": 3365,
      "Ety": 3366,
      "Every": 3367,
      "Estate": 3368,
      "Emer": 3369,
      "Escape": 3370,
      "Elocutionist": 3371,
      "FG": 3372,
      "FR": 3373,
      "Fl": 3374,
      "Fit": 3375,
      "Fall": 3376,
      "Fil": 3377,
      "Foo": 3378,
      "Fancy": 3379,
      "Food": 3380,
      "FAQ": 3381,
      "Gr": 3382,
      "Ger": 3383,
      "Gro": 3384,
      "Gho": 3385,
      "Great": 3386,
      "Gaut": 3387,
      "Gasligh": 3388,
      "Gnomist": 3389,
      "Github": 3390,
      "Gallery": 3391,
      "HI": 3392,
      "HT": 3393,
      "Hy": 3394,
      "Had": 3395,
      "Hay": 3396,
      "Hack": 3397,
      "Hot": 3398,
      "Having": 3399,
      "Id": 3400,
      "Iter": 3401,
      "Ital": 3402,
      "Ident": 3403,
      "IEW": 3404,
      "JL": 3405,
      "JW": 3406,
      "Jī": 3407,
      "Jargon": 3408,
      "KPI": 3409,
      "Knowledge": 3410,
      "LL": 3411,
      "LR": 3412,
      "La": 3413,
      "Lon": 3414,
      "Lar": 3415,
      "Lun": 3416,
      "List": 3417,
      "Law": 3418,
      "Lives": 3419,
      "Later": 3420,
      "Liter": 3421,
      "LSI": 3422,
      "ML": 3423,
      "Me": 3424,
      "Mu": 3425,
      "Mat": 3426,
      "Mit": 3427,
      "Mic": 3428,
      "Mess": 3429,
      "May": 3430,
      "Mach": 3431,
      "Many": 3432,
      "Main": 3433,
      "More": 3434,
      "Mech": 3435,
      "Multi": 3436,
      "N5": 3437,
      "Ne": 3438,
      "Name": 3439,
      "Next": 3440,
      "Not": 3441,
      "Nutrit": 3442,
      "NLP": 3443,
      "Navigation": 3444,
      "OM": 3445,
      "OP": 3446,
      "OR": 3447,
      "Ob": 3448,
      "Or": 3449,
      "Out": 3450,
      "Our": 3451,
      "Open": 3452,
      "OLR": 3453,
      "Pa": 3454,
      "Pl": 3455,
      "Pu": 3456,
      "Pre": 3457,
      "Pir": 3458,
      "Put": 3459,
      "Pet": 3460,
      "Plan": 3461,
      "Pyth": 3462,
      "Pass": 3463,
      "Pilo": 3464,
      "Path": 3465,
      "Psycho": 3466,
      "Paris": 3467,
      "Qur": 3468,
      "Qual": 3469,
      "RP": 3470,
      "Rā": 3471,
      "Ris": 3472,
      "Red": 3473,
      "Rap": 3474,
      "Ronal": 3475,
      "Rules": 3476,
      "REV": 3477,
      "SA": 3478,
      "SC": 3479,
      "Sa": 3480,
      "Sk": 3481,
      "Sl": 3482,
      "Sm": 3483,
      "Su": 3484,
      "Sou": 3485,
      "Spl": 3486,
      "Sut": 3487,
      "Sun": 3488,
      "Spo": 3489,
      "Sim": 3490,
      "Send": 3491,
      "Sup": 3492,
      "Sha": 3493,
      "Sel": 3494,
      "Stop": 3495,
      "Sid": 3496,
      "Sev": 3497,
      "Song": 3498,
      "Sources": 3499,
      "Sub": 3500,
      "Screen": 3501,
      "Script": 3502,
      "School": 3503,
      "Space": 3504,
      "SOLR": 3505,
      "Ta": 3506,
      "Ti": 3507,
      "Table": 3508,
      "Tone": 3509,
      "Top": 3510,
      "Task": 3511,
      "Text": 3512,
      "Tod": 3513,
      "Tell": 3514,
      "Tips": 3515,
      "Taking": 3516,
      "Tutor": 3517,
      "Taster": 3518,
      "TAB": 3519,
      "TOP": 3520,
      "Us": 3521,
      "User": 3522,
      "USA": 3523,
      "Vis": 3524,
      "Vide": 3525,
      "Vue": 3526,
      "Wis": 3527,
      "Yet": 3528,
      "Yog": 3529,
      "[@": 3530,
      "[...": 3531,
      "]\"\".\"": 3532,
      "]\"\".": 3533,
      "a4": 3534,
      "ah": 3535,
      "ai": 3536,
      "aer": 3537,
      "ais": 3538,
      "air": 3539,
      "aver": 3540,
      "aha": 3541,
      "afe": 3542,
      "aways": 3543,
      "ailed": 3544,
      "astructure": 3545,
      "aily": 3546,
      "bou": 3547,
      "bat": 3548,
      "bed": 3549,
      "bur": 3550,
      "bies": 3551,
      "big": 3552,
      "boo": 3553,
      "bble": 3554,
      "blog": 3555,
      "bol": 3556,
      "bits": 3557,
      "bles": 3558,
      "bability": 3559,
      "bool": 3560,
      "bank": 3561,
      "cing": 3562,
      "cit": 3563,
      "cir": 3564,
      "cab": 3565,
      "cut": 3566,
      "came": 3567,
      "city": 3568,
      "center": 3569,
      "ccas": 3570,
      "citing": 3571,
      "categories": 3572,
      "dd": 3573,
      "dh": 3574,
      "den": 3575,
      "dess": 3576,
      "dur": 3577,
      "dam": 3578,
      "dable": 3579,
      "done": 3580,
      "dity": 3581,
      "dicate": 3582,
      "double": 3583,
      "dash": 3584,
      "daily": 3585,
      "e4": 3586,
      "ey": 3587,
      "ele": 3588,
      "ear": 3589,
      "eli": 3590,
      "ema": 3591,
      "ead": 3592,
      "eking": 3593,
      "ewe": 3594,
      "equal": 3595,
      "eye": 3596,
      "empa": 3597,
      "elder": 3598,
      "elocutionist": 3599,
      "ft": 3600,
      "fu": 3601,
      "fant": 3602,
      "fli": 3603,
      "fart": 3604,
      "fine": 3605,
      "fame": 3606,
      "fers": 3607,
      "four": 3608,
      "fav": 3609,
      "fire": 3610,
      "fail": 3611,
      "gf": 3612,
      "gp": 3613,
      "gro": 3614,
      "gar": 3615,
      "ged": 3616,
      "gut": 3617,
      "gly": 3618,
      "gment": 3619,
      "gap": 3620,
      "gies": 3621,
      "gam": 3622,
      "gless": 3623,
      "glit": 3624,
      "google": 3625,
      "gaps": 3626,
      "good": 3627,
      "gnomist": 3628,
      "github": 3629,
      "gallery": 3630,
      "hic": 3631,
      "hed": 3632,
      "ham": 3633,
      "hoo": 3634,
      "hob": 3635,
      "hous": 3636,
      "herent": 3637,
      "hard": 3638,
      "hom": 3639,
      "hints": 3640,
      "hind": 3641,
      "hood": 3642,
      "ix": 3643,
      "ider": 3644,
      "istr": 3645,
      "ians": 3646,
      "iers": 3647,
      "ients": 3648,
      "iends": 3649,
      "ios": 3650,
      "iety": 3651,
      "iency": 3652,
      "iPh": 3653,
      "ibing": 3654,
      "iums": 3655,
      "jj": 3656,
      "jag": 3657,
      "jud": 3658,
      "jell": 3659,
      "jargon": 3660,
      "jewe": 3661,
      "ky": 3662,
      "ker": 3663,
      "kit": 3664,
      "ked": 3665,
      "kind": 3666,
      "lr": 3667,
      "lu": 3668,
      "ler": 3669,
      "lic": 3670,
      "lations": 3671,
      "lack": 3672,
      "later": 3673,
      "mu": 3674,
      "men": 3675,
      "mag": 3676,
      "mate": 3677,
      "mical": 3678,
      "mall": 3679,
      "mone": 3680,
      "muse": 3681,
      "mble": 3682,
      "mill": 3683,
      "mens": 3684,
      "mass": 3685,
      "mutable": 3686,
      "multi": 3687,
      "mbol": 3688,
      "nit": 3689,
      "nar": 3690,
      "ned": 3691,
      "nical": 3692,
      "nice": 3693,
      "nack": 3694,
      "night": 3695,
      "null": 3696,
      "narr": 3697,
      "nthes": 3698,
      "nah": 3699,
      "oğ": 3700,
      "oth": 3701,
      "ove": 3702,
      "ome": 3703,
      "oke": 3704,
      "oper": 3705,
      "odi": 3706,
      "ogu": 3707,
      "oil": 3708,
      "ospace": 3709,
      "ological": 3710,
      "ostwriter": 3711,
      "occas": 3712,
      "oked": 3713,
      "pw": 3714,
      "ple": 3715,
      "ped": 3716,
      "pun": 3717,
      "pts": 3718,
      "pply": 3719,
      "piz": 3720,
      "pting": 3721,
      "pals": 3722,
      "ption": 3723,
      "palet": 3724,
      "phet": 3725,
      "piano": 3726,
      "ra": 3727,
      "rth": 3728,
      "ron": 3729,
      "ring": 3730,
      "ric": 3731,
      "rest": 3732,
      "rate": 3733,
      "righ": 3734,
      "rint": 3735,
      "rational": 3736,
      "rank": 3737,
      "range": 3738,
      "rush": 3739,
      "rhet": 3740,
      "rays": 3741,
      "rix": 3742,
      "ss": 3743,
      "sou": 3744,
      "sed": 3745,
      "sme": 3746,
      "squ": 3747,
      "smo": 3748,
      "sam": 3749,
      "slog": 3750,
      "sance": 3751,
      "scur": 3752,
      "samples": 3753,
      "saw": 3754,
      "sake": 3755,
      "scal": 3756,
      "script": 3757,
      "schem": 3758,
      "safe": 3759,
      "snack": 3760,
      "ton": 3761,
      "twi": 3762,
      "tact": 3763,
      "ties": 3764,
      "tip": 3765,
      "tour": 3766,
      "tie": 3767,
      "tue": 3768,
      "tree": 3769,
      "tanikāya": 3770,
      "tches": 3771,
      "texts": 3772,
      "t9B": 3773,
      "ues": 3774,
      "upl": 3775,
      "usu": 3776,
      "ute": 3777,
      "uish": 3778,
      "uous": 3779,
      "ustrating": 3780,
      "uitive": 3781,
      "ustration": 3782,
      "vs": 3783,
      "vin": 3784,
      "ven": 3785,
      "vest": 3786,
      "vice": 3787,
      "vative": 3788,
      "vail": 3789,
      "veness": 3790,
      "vague": 3791,
      "vaka": 3792,
      "win": 3793,
      "won": 3794,
      "was": 3795,
      "war": 3796,
      "whe": 3797,
      "ware": 3798,
      "wow": 3799,
      "whel": 3800,
      "wall": 3801,
      "wget": 3802,
      "wast": 3803,
      "wake": 3804,
      "water": 3805,
      "xation": 3806,
      "xiety": 3807,
      "yer": 3808,
      "yal": 3809,
      "yut": 3810,
      "yment": 3811,
      "yard": 3812,
      "yom": 3813,
      "yfish": 3814,
      "yarn": 3815,
      "yoğ": 3816,
      "yption": 3817,
      "za": 3818,
      "zz": 3819,
      "zel": 3820,
      "zodi": 3821,
      "{{": 3822,
      "},": 3823,
      "}]:": 3824,
      "}}.\"\"\"": 3825,
      "ārth": 3826,
      "ṁyut": 3827,
      "”.\"": 3828,
      "”?\"": 3829,
      "anic": 3830,
      "anci": 3831,
      "angr": 3832,
      "anec": 3833,
      "angle": 3834,
      "anches": 3835,
      "anced": 3836,
      "anchor": 3837,
      "anxiety": 3838,
      "inst": 3839,
      "inct": 3840,
      "ined": 3841,
      "ination": 3842,
      "inno": 3843,
      "indo": 3844,
      "inator": 3845,
      "inject": 3846,
      "info": 3847,
      "incorrect": 3848,
      "infr": 3849,
      "inactive": 3850,
      "incent": 3851,
      "inconsist": 3852,
      "inuous": 3853,
      "ths": 3854,
      "thor": 3855,
      "thrit": 3856,
      "thun": 3857,
      "thus": 3858,
      "thiness": 3859,
      "third": 3860,
      "ons": 3861,
      "onation": 3862,
      "once": 3863,
      "ontal": 3864,
      "oubles": 3865,
      "escape": 3866,
      "espace": 3867,
      "esome": 3868,
      "erd": 3869,
      "eric": 3870,
      "erts": 3871,
      "eria": 3872,
      "ergy": 3873,
      "ercises": 3874,
      "ership": 3875,
      "aters": 3876,
      "ature": 3877,
      "atics": 3878,
      "atulate": 3879,
      "oral": 3880,
      "oras": 3881,
      "ored": 3882,
      "oration": 3883,
      "orage": 3884,
      "orable": 3885,
      "orary": 3886,
      "orous": 3887,
      "ordin": 3888,
      "orchest": 3889,
      "ense": 3890,
      "enci": 3891,
      "encr": 3892,
      "red": 3893,
      "rees": 3894,
      "reli": 3895,
      "repe": 3896,
      "redi": 3897,
      "regu": 3898,
      "retr": 3899,
      "reject": 3900,
      "refin": 3901,
      "remed": 3902,
      "recording": 3903,
      "redeveloping": 3904,
      "recall": 3905,
      "report": 3906,
      "retention": 3907,
      "reduc": 3908,
      "representing": 3909,
      "reduce": 3910,
      "representation": 3911,
      "recruiter": 3912,
      "retches": 3913,
      "reven": 3914,
      "tocol": 3915,
      "today": 3916,
      "token": 3917,
      "toward": 3918,
      "towers": 3919,
      "todd": 3920,
      "ingredi": 3921,
      "thetics": 3922,
      "thetical": 3923,
      "sts": 3924,
      "stir": 3925,
      "stating": 3926,
      "still": 3927,
      "stake": 3928,
      "stell": 3929,
      "stream": 3930,
      "staff": 3931,
      "stances": 3932,
      "stems": 3933,
      "stars": 3934,
      "stinct": 3935,
      "stored": 3936,
      "stretches": 3937,
      "yout": 3938,
      "alter": 3939,
      "ally": 3940,
      "alone": 3941,
      "alid": 3942,
      "although": 3943,
      "ionned": 3944,
      "wide": 3945,
      "wild": 3946,
      "cting": 3947,
      "ctuation": 3948,
      "itled": 3949,
      "itative": 3950,
      "itself": 3951,
      "itize": 3952,
      "itespace": 3953,
      "asc": 3954,
      "asy": 3955,
      "asing": 3956,
      "asse": 3957,
      "asses": 3958,
      "assign": 3959,
      "assurance": 3960,
      "rol": 3961,
      "roid": 3962,
      "roduct": 3963,
      "roots": 3964,
      "roeconomic": 3965,
      "deal": 3966,
      "deed": 3967,
      "dead": 3968,
      "deci": 3969,
      "deep": 3970,
      "decep": 3971,
      "devis": 3972,
      "defin": 3973,
      "deduct": 3974,
      "depress": 3975,
      "delay": 3976,
      "delim": 3977,
      "defa": 3978,
      "defying": 3979,
      "demician": 3980,
      "dealing": 3981,
      "detour": 3982,
      "ises": 3983,
      "ising": 3984,
      "isse": 3985,
      "isper": 3986,
      "isure": 3987,
      "lege": 3988,
      "lebr": 3989,
      "leave": 3990,
      "left": 3991,
      "leisure": 3992,
      "\"\"-": 3993,
      "\"\".\"\"\"": 3994,
      "\"\");": 3995,
      "\"\"<?": 3996,
      "llo": 3997,
      "llent": 3998,
      "llut": 3999,
      "ica": 4000,
      "icing": 4001,
      "icating": 4002,
      "icient": 4003,
      "icines": 4004,
      "iciency": 4005,
      "aract": 4006,
      "ardi": 4007,
      "arize": 4008,
      "arning": 4009,
      "arpen": 4010,
      "arthrit": 4011,
      "chart": 4012,
      "chase": 4013,
      "child": 4014,
      "chos": 4015,
      "chef": 4016,
      "chased": 4017,
      "chron": 4018,
      "pros": 4019,
      "prote": 4020,
      "promot": 4021,
      "propos": 4022,
      "procal": 4023,
      "provo": 4024,
      "proposing": 4025,
      "prospect": 4026,
      "probing": 4027,
      "promotion": 4028,
      "probab": 4029,
      "proced": 4030,
      "propositions": 4031,
      "probability": 4032,
      "prophet": 4033,
      "edit": 4034,
      "edge": 4035,
      "edIn": 4036,
      "edian": 4037,
      "editing": 4038,
      "editor": 4039,
      "ests": 4040,
      "estate": 4041,
      "ently": 4042,
      "enture": 4043,
      "entire": 4044,
      "entrees": 4045,
      "entitled": 4046,
      "veli": 4047,
      "vement": 4048,
      "vegan": 4049,
      "vehic": 4050,
      "melo": 4051,
      "mething": 4052,
      "metho": 4053,
      "mechan": 4054,
      "meets": 4055,
      "meals": 4056,
      "plers": 4057,
      "plast": 4058,
      "plify": 4059,
      "pliers": 4060,
      "plined": 4061,
      "fork": 4062,
      "forth": 4063,
      "forts": 4064,
      "forget": 4065,
      "fordable": 4066,
      "cold": 4067,
      "copes": 4068,
      "cogn": 4069,
      "coherent": 4070,
      "cooked": 4071,
      "cosme": 4072,
      "coordin": 4073,
      "ants": 4074,
      "antic": 4075,
      "antages": 4076,
      "antitative": 4077,
      "actual": 4078,
      "actors": 4079,
      "oft": 4080,
      "often": 4081,
      "ofreader": 4082,
      "irs": 4083,
      "iring": 4084,
      "iras": 4085,
      "irrit": 4086,
      "iries": 4087,
      "irational": 4088,
      "irrational": 4089,
      "extr": 4090,
      "exot": 4091,
      "excer": 4092,
      "extra": 4093,
      "expect": 4094,
      "execut": 4095,
      "exchanged": 4096,
      "exciting": 4097,
      "wanted": 4098,
      "quire": 4099,
      "quets": 4100,
      "quantitative": 4101,
      "viz": 4102,
      "viyom": 4103,
      "novel": 4104,
      "novelist": 4105,
      "nologies": 4106,
      "noisse": 4107,
      "sees": 4108,
      "seper": 4109,
      "seating": 4110,
      "select": 4111,
      "seem": 4112,
      "sector": 4113,
      "selection": 4114,
      "selling": 4115,
      "seviyom": 4116,
      "super": 4117,
      "supre": 4118,
      "sultant": 4119,
      "supply": 4120,
      "\",\"[": 4121,
      "behave": 4122,
      "behind": 4123,
      "again": 4124,
      "agoras": 4125,
      "love": 4126,
      "lose": 4127,
      "lots": 4128,
      "loop": 4129,
      "loyal": 4130,
      "cel": 4131,
      "cease": 4132,
      "cemic": 4133,
      "celebr": 4134,
      "mps": 4135,
      "mpoo": 4136,
      "mporary": 4137,
      "lders": 4138,
      "nel": 4139,
      "never": 4140,
      "newer": 4141,
      "neccess": 4142,
      "ters": 4143,
      "tery": 4144,
      "essive": 4145,
      "soon": 4146,
      "somed": 4147,
      "atement": 4148,
      "heets": 4149,
      "healing": 4150,
      "hello": 4151,
      "keAPI": 4152,
      "lio": 4153,
      "liking": 4154,
      "lives": 4155,
      "lidity": 4156,
      "liveli": 4157,
      "abic": 4158,
      "abdo": 4159,
      "abstr": 4160,
      "abide": 4161,
      "abbing": 4162,
      "above": 4163,
      "cons": 4164,
      "conte": 4165,
      "constr": 4166,
      "congr": 4167,
      "confin": 4168,
      "consequ": 4169,
      "conference": 4170,
      "convin": 4171,
      "connoisse": 4172,
      "rites": 4173,
      "shad": 4174,
      "shap": 4175,
      "ships": 4176,
      "shopper": 4177,
      "sharpen": 4178,
      "tegr": 4179,
      "teamm": 4180,
      "tector": 4181,
      "peace": 4182,
      "uting": 4183,
      "utions": 4184,
      "util": 4185,
      "percep": 4186,
      "persever": 4187,
      "provider": 4188,
      "uni": 4189,
      "unsure": 4190,
      "unities": 4191,
      "unspecified": 4192,
      "unfamiliar": 4193,
      "undetect": 4194,
      "unexpect": 4195,
      "mad": 4196,
      "mak": 4197,
      "math": 4198,
      "maps": 4199,
      "master": 4200,
      "mmarizer": 4201,
      "dog": 4202,
      "dom": 4203,
      "dow": 4204,
      "dogs": 4205,
      "dotes": 4206,
      "dologies": 4207,
      "outing": 4208,
      "outstand": 4209,
      "outcome": 4210,
      "outlin": 4211,
      "outfit": 4212,
      "urs": 4213,
      "ury": 4214,
      "uristic": 4215,
      "whitespace": 4216,
      "whisper": 4217,
      "acies": 4218,
      "accep": 4219,
      "acles": 4220,
      "accompany": 4221,
      "acoustic": 4222,
      "acquire": 4223,
      "ada": 4224,
      "adver": 4225,
      "adult": 4226,
      "adhere": 4227,
      "writable": 4228,
      "writting": 4229,
      "six": 4230,
      "sides": 4231,
      "siveness": 4232,
      "distr": 4233,
      "diam": 4234,
      "diction": 4235,
      "distance": 4236,
      "disting": 4237,
      "dietary": 4238,
      "dietitian": 4239,
      "dimens": 4240,
      "dizz": 4241,
      "distinct": 4242,
      "guy": 4243,
      "guous": 4244,
      "guitar": 4245,
      "guzel": 4246,
      "guests": 4247,
      "usion": 4248,
      "usage": 4249,
      "verter": 4250,
      "verif": 4251,
      "verses": 4252,
      "verified": 4253,
      "verdict": 4254,
      "verbal": 4255,
      "mode": 4256,
      "modes": 4257,
      "moving": 4258,
      "mobile": 4259,
      "mentionned": 4260,
      "worthiness": 4261,
      "requesting": 4262,
      "requested": 4263,
      "ciplined": 4264,
      "api": 4265,
      "appet": 4266,
      "ulty": 4267,
      "ulum": 4268,
      "ulting": 4269,
      "ulary": 4270,
      "ulpting": 4271,
      "ache": 4272,
      "shouldn": 4273,
      "resid": 4274,
      "resol": 4275,
      "respect": 4276,
      "resulting": 4277,
      "needing": 4278,
      "owners": 4279,
      "explos": 4280,
      "ders": 4281,
      "strive": 4282,
      "strik": 4283,
      "strange": 4284,
      "ister": 4285,
      "istician": 4286,
      "istanbul": 4287,
      "istiano": 4288,
      "amoun": 4289,
      "ambit": 4290,
      "ambi": 4291,
      "amuni": 4292,
      "poet": 4293,
      "pointer": 4294,
      "poses": 4295,
      "poems": 4296,
      "pokemon": 4297,
      "polic": 4298,
      "pollut": 4299,
      "anywhere": 4300,
      "common": 4301,
      "commender": 4302,
      "ggling": 4303,
      "imaging": 4304,
      "imately": 4305,
      "ghanikāya": 4306,
      "ghostwriter": 4307,
      "suggests": 4308,
      "track": 4309,
      "trace": 4310,
      "trapp": 4311,
      "trips": 4312,
      "tribut": 4313,
      "trouble": 4314,
      "triple": 4315,
      "troubles": 4316,
      "endpoint": 4317,
      "endency": 4318,
      "upper": 4319,
      "updates": 4320,
      "click": 4321,
      "classical": 4322,
      "classes": 4323,
      "priv": 4324,
      "prior": 4325,
      "arture": 4326,
      "formulate": 4327,
      "desk": 4328,
      "desires": 4329,
      "ilt": 4330,
      "ilers": 4331,
      "Does": 4332,
      "tama": 4333,
      "tasting": 4334,
      "taxation": 4335,
      "were": 4336,
      "enger": 4337,
      "ift": 4338,
      "ification": 4339,
      "compass": 4340,
      "comparing": 4341,
      "competing": 4342,
      "comparis": 4343,
      "explanatory": 4344,
      "having": 4345,
      "opport": 4346,
      "ameters": 4347,
      "igation": 4348,
      "interact": 4349,
      "interval": 4350,
      "interior": 4351,
      "interacting": 4352,
      "interfac": 4353,
      "interactions": 4354,
      "interface": 4355,
      "wear": 4356,
      "weight": 4357,
      "mption": 4358,
      "themsel": 4359,
      "likely": 4360,
      "gets": 4361,
      "geograph": 4362,
      "ipate": 4363,
      "ipulate": 4364,
      "ipiṭaka": 4365,
      "ipped": 4366,
      "ators": 4367,
      "romance": 4368,
      "romantic": 4369,
      "gramming": 4370,
      "grade": 4371,
      "grabbing": 4372,
      "ourable": 4373,
      "ourages": 4374,
      "technologies": 4375,
      "cores": 4376,
      "corator": 4377,
      "corner": 4378,
      "prepar": 4379,
      "prefi": 4380,
      "prevail": 4381,
      "putes": 4382,
      "izations": 4383,
      "izontal": 4384,
      "languages": 4385,
      "ualizer": 4386,
      "Instruct": 4387,
      "Insp": 4388,
      "Infl": 4389,
      "Intention": 4390,
      "Initial": 4391,
      "Indicate": 4392,
      "Invest": 4393,
      "Indeed": 4394,
      "Integr": 4395,
      "ished": 4396,
      "blem": 4397,
      "bleach": 4398,
      "extensive": 4399,
      "extended": 4400,
      "sentient": 4401,
      "stands": 4402,
      "standalone": 4403,
      "standardi": 4404,
      "logo": 4405,
      "login": 4406,
      "answerable": 4407,
      "site": 4408,
      "sitivity": 4409,
      "acknowledge": 4410,
      "advanced": 4411,
      "adventure": 4412,
      "advantages": 4413,
      "jectives": 4414,
      "responsiveness": 4415,
      "They": 4416,
      "observ": 4417,
      "obvious": 4418,
      "experts": 4419,
      "listing": 4420,
      "listic": 4421,
      "listening": 4422,
      "fear": 4423,
      "fears": 4424,
      "minor": 4425,
      "minating": 4426,
      "Ensure": 4427,
      "Enhance": 4428,
      "Energy": 4429,
      "Rewrite": 4430,
      "Regular": 4431,
      "Reef": 4432,
      "Reason": 4433,
      "Reference": 4434,
      "Recruiter": 4435,
      "Refine": 4436,
      "Recommender": 4437,
      "informed": 4438,
      "oughtful": 4439,
      "relate": 4440,
      "telling": 4441,
      "ainer": 4442,
      "ained": 4443,
      "others": 4444,
      "phone": 4445,
      "pherd": 4446,
      "makeup": 4447,
      "ignore": 4448,
      "brush": 4449,
      "branches": 4450,
      "generation": 4451,
      "olmak": 4452,
      "createSl": 4453,
      "Programm": 4454,
      "Promotion": 4455,
      "Protocol": 4456,
      "Proofreader": 4457,
      "Programming": 4458,
      "Problem": 4459,
      "curl": 4460,
      "curating": 4461,
      "curric": 4462,
      "custom": 4463,
      "foster": 4464,
      "folio": 4465,
      "texting": 4466,
      "textures": 4467,
      "textboo": 4468,
      "worked": 4469,
      "workout": 4470,
      "workplace": 4471,
      "aker": 4472,
      "bash": 4473,
      "ieve": 4474,
      "tentacles": 4475,
      "Where": 4476,
      "While": 4477,
      "Which": 4478,
      "button": 4479,
      "structural": 4480,
      "structures": 4481,
      "known": 4482,
      "ounter": 4483,
      "Engage": 4484,
      "ials": 4485,
      "iality": 4486,
      "serving": 4487,
      "charged": 4488,
      "avor": 4489,
      "avant": 4490,
      "fulness": 4491,
      "fulfill": 4492,
      "overs": 4493,
      "overcome": 4494,
      "overview": 4495,
      "overcoming": 4496,
      "overflow": 4497,
      "overlap": 4498,
      "overlooked": 4499,
      "overwhel": 4500,
      "vising": 4501,
      "visits": 4502,
      "arily": 4503,
      "ategist": 4504,
      "conceptual": 4505,
      "persona": 4506,
      "personnel": 4507,
      "Third": 4508,
      "Thoughtful": 4509,
      "final": 4510,
      "finances": 4511,
      "finished": 4512,
      "symbol": 4513,
      "synthes": 4514,
      "systems": 4515,
      "oryteller": 4516,
      "keynote": 4517,
      "differs": 4518,
      "Code": 4519,
      "Coding": 4520,
      "Comed": 4521,
      "Stand": 4522,
      "Stories": 4523,
      "Storage": 4524,
      "Statement": 4525,
      "Storyteller": 4526,
      "causing": 4527,
      "illity": 4528,
      "illnesses": 4529,
      "illustrating": 4530,
      "jobs": 4531,
      "manipulate": 4532,
      "comes": 4533,
      "comings": 4534,
      "comedian": 4535,
      "timeless": 4536,
      "backtracking": 4537,
      "backtrack": 4538,
      "evening": 4539,
      "evoke": 4540,
      "addition": 4541,
      "strategist": 4542,
      "aft": 4543,
      "affordable": 4544,
      "duction": 4545,
      "echo": 4546,
      "larger": 4547,
      "rectangle": 4548,
      "studying": 4549,
      "planes": 4550,
      "planning": 4551,
      "planetary": 4552,
      "plays": 4553,
      "players": 4554,
      "playtime": 4555,
      "Ant": 4556,
      "Antic": 4557,
      "berately": 4558,
      "sky": 4559,
      "college": 4560,
      "technique": 4561,
      "Experi": 4562,
      "Exercises": 4563,
      "Excel": 4564,
      "astound": 4565,
      "astrologer": 4566,
      "ammers": 4567,
      "boy": 4568,
      "boys": 4569,
      "spending": 4570,
      "spouse": 4571,
      "spider": 4572,
      "sprites": 4573,
      "programmers": 4574,
      "downtown": 4575,
      "transform": 4576,
      "transfer": 4577,
      "transforms": 4578,
      "transcript": 4579,
      "transition": 4580,
      "transactions": 4581,
      "transfers": 4582,
      "describing": 4583,
      "differentiate": 4584,
      "Chess": 4585,
      "Challeng": 4586,
      "Change": 4587,
      "Charact": 4588,
      "Trying": 4589,
      "Truc": 4590,
      "Tricks": 4591,
      "Tripiṭaka": 4592,
      "Trainer": 4593,
      "enced": 4594,
      "enclosing": 4595,
      "encourages": 4596,
      "encounter": 4597,
      "practicing": 4598,
      "autom": 4599,
      "automo": 4600,
      "author": 4601,
      "efficient": 4602,
      "hasizing": 4603,
      "ksheets": 4604,
      "anings": 4605,
      "intact": 4606,
      "intuitive": 4607,
      "intonation": 4608,
      "introduct": 4609,
      "invite": 4610,
      "invalid": 4611,
      "profits": 4612,
      "profile": 4613,
      "profession": 4614,
      "proficiency": 4615,
      "expressjs": 4616,
      "subheadings": 4617,
      "subtle": 4618,
      "subconscious": 4619,
      "substances": 4620,
      "ultimately": 4621,
      "specify": 4622,
      "specifics": 4623,
      "specifically": 4624,
      "characterization": 4625,
      "blend": 4626,
      "blame": 4627,
      "blication": 4628,
      "funds": 4629,
      "ilder": 4630,
      "liner": 4631,
      "markets": 4632,
      "mediums": 4633,
      "medicines": 4634,
      "instructor": 4635,
      "instructed": 4636,
      "recommender": 4637,
      "recommended": 4638,
      "assisted": 4639,
      "roleplay": 4640,
      "meanings": 4641,
      "meaningless": 4642,
      "cialist": 4643,
      "individually": 4644,
      "Content": 4645,
      "Concise": 4646,
      "Console": 4647,
      "Conclus": 4648,
      "Consultant": 4649,
      "Converter": 4650,
      "Contribut": 4651,
      "careers": 4652,
      "careful": 4653,
      "eases": 4654,
      "easier": 4655,
      "matter": 4656,
      "messenger": 4657,
      "presence": 4658,
      "presents": 4659,
      "throughout": 4660,
      "llowing": 4661,
      "versed": 4662,
      "articulate": 4663,
      "corrector": 4664,
      "corrections": 4665,
      "focused": 4666,
      "Arr": 4667,
      "Arabic": 4668,
      "Detector": 4669,
      "Decorator": 4670,
      "display": 4671,
      "discourse": 4672,
      "disappear": 4673,
      "disciplined": 4674,
      "disputes": 4675,
      "diseases": 4676,
      "fragr": 4677,
      "frontend": 4678,
      "friends": 4679,
      "frustration": 4680,
      "tester": 4681,
      "tested": 4682,
      "aticians": 4683,
      "statements": 4684,
      "possess": 4685,
      "compose": 4686,
      "composing": 4687,
      "interpreting": 4688,
      "architectures": 4689,
      "bracket": 4690,
      "followers": 4691,
      "Advert": 4692,
      "Advent": 4693,
      "aware": 4694,
      "awesome": 4695,
      "buy": 4696,
      "bugs": 4697,
      "bubble": 4698,
      "bugless": 4699,
      "built": 4700,
      "breath": 4701,
      "dress": 4702,
      "drated": 4703,
      "drink": 4704,
      "drama": 4705,
      "drank": 4706,
      "draft": 4707,
      "scientist": 4708,
      "refuse": 4709,
      "refute": 4710,
      "refuting": 4711,
      "started": 4712,
      "dependency": 4713,
      "departure": 4714,
      "issue": 4715,
      "issuing": 4716,
      "communicating": 4717,
      "engineers": 4718,
      "analyst": 4719,
      "analytical": 4720,
      "analyzing": 4721,
      "professionally": 4722,
      "presented": 4723,
      "Format": 4724,
      "Learn": 4725,
      "Learning": 4726,
      "Press": 4727,
      "Print": 4728,
      "Prior": 4729,
      "calming": 4730,
      "faction": 4731,
      "historian": 4732,
      "imprint": 4733,
      "lesson": 4734,
      "nonverbal": 4735,
      "parameters": 4736,
      "saying": 4737,
      "sayings": 4738,
      "reading": 4739,
      "readme": 4740,
      "readable": 4741,
      "stylist": 4742,
      "styling": 4743,
      "necessitating": 4744,
      "teachings": 4745,
      "guessing": 4746,
      "webpage": 4747,
      "approachable": 4748,
      "involving": 4749,
      "involves": 4750,
      "complexe": 4751,
      "Something": 4752,
      "Solidity": 4753,
      "climax": 4754,
      "climate": 4755,
      "critique": 4756,
      "critically": 4757,
      "criteria": 4758,
      "counselor": 4759,
      "emoji": 4760,
      "layers": 4761,
      "layperson": 4762,
      "layman": 4763,
      "layovers": 4764,
      "oscopes": 4765,
      "patients": 4766,
      "timing": 4767,
      "timesta": 4768,
      "requires": 4769,
      "storyline": 4770,
      "storyteller": 4771,
      "storytelling": 4772,
      "production": 4773,
      "mathematics": 4774,
      "mathematicians": 4775,
      "visually": 4776,
      "visualizer": 4777,
      "visualizations": 4778,
      "function": 4779,
      "Always": 4780,
      "Assign": 4781,
      "Assurance": 4782,
      "Firstly": 4783,
      "Guitar": 4784,
      "TechCrunch": 4785,
      "Technical": 4786,
      "busy": 4787,
      "buses": 4788,
      "capable": 4789,
      "clearer": 4790,
      "dont": 4791,
      "everytime": 4792,
      "fitter": 4793,
      "fitted": 4794,
      "gnition": 4795,
      "monies": 4796,
      "monitor": 4797,
      "months": 4798,
      "merge": 4799,
      "portra": 4800,
      "virtue": 4801,
      "organic": 4802,
      "organized": 4803,
      "really": 4804,
      "activity": 4805,
      "networking": 4806,
      "keeps": 4807,
      "keeping": 4808,
      "limit": 4809,
      "limits": 4810,
      "limiting": 4811,
      "minds": 4812,
      "mindset": 4813,
      "mindfulness": 4814,
      "Starting": 4815,
      "countant": 4816,
      "requirement": 4817,
      "Actively": 4818,
      "Creative": 4819,
      "SELE": 4820,
      "days": 4821,
      "efs": 4822,
      "efforts": 4823,
      "ethics": 4824,
      "flavor": 4825,
      "furnit": 4826,
      "holder": 4827,
      "holders": 4828,
      "holistic": 4829,
      "little": 4830,
      "routines": 4831,
      "sculpting": 4832,
      "talks": 4833,
      "taranikāya": 4834,
      "tago": 4835,
      "integer": 4836,
      "atically": 4837,
      "rows": 4838,
      "change": 4839,
      "processing": 4840,
      "coaching": 4841,
      "ationship": 4842,
      "qualifications": 4843,
      "summarizer": 4844,
      "summarize": 4845,
      "control": 4846,
      "conversations": 4847,
      "accuracy": 4848,
      "simulate": 4849,
      "aphorism": 4850,
      "aphviz": 4851,
      "engagement": 4852,
      "haviorist": 4853,
      "speeches": 4854,
      "Interviewer": 4855,
      "Internet": 4856,
      "Interior": 4857,
      "Interstell": 4858,
      "logistical": 4859,
      "logistician": 4860,
      "objective": 4861,
      "objectives": 4862,
      "boards": 4863,
      "Images": 4864,
      "Key": 4865,
      "bookname": 4866,
      "cycle": 4867,
      "dreamer": 4868,
      "handling": 4869,
      "longer": 4870,
      "publication": 4871,
      "running": 4872,
      "ubunt": 4873,
      "enhancement": 4874,
      "reciprocal": 4875,
      "delicious": 4876,
      "delivery": 4877,
      "deliberately": 4878,
      "array": 4879,
      "arrang": 4880,
      "arrays": 4881,
      "challenge": 4882,
      "beginner": 4883,
      "beginning": 4884,
      "behaviour": 4885,
      "abilities": 4886,
      "considering": 4887,
      "considered": 4888,
      "considerations": 4889,
      "shortcomings": 4890,
      "signs": 4891,
      "diagonal": 4892,
      "vertically": 4893,
      "commentate": 4894,
      "commentator": 4895,
      "commentariat": 4896,
      "philosopher": 4897,
      "currently": 4898,
      "visited": 4899,
      "visitors": 4900,
      "manageable": 4901,
      "columns": 4902,
      "Architecture": 4903,
      "motivation": 4904,
      "motivating": 4905,
      "buildings": 4906,
      "breakdown": 4907,
      "businesses": 4908,
      "scene": 4909,
      "origins": 4910,
      "Below": 4911,
      "Begin": 4912,
      "Beyoğ": 4913,
      "Behaviorist": 4914,
      "Clarity": 4915,
      "Clarify": 4916,
      "Goals": 4917,
      "Gotama": 4918,
      "Languages": 4919,
      "Makeup": 4920,
      "Note": 4921,
      "Novelist": 4922,
      "Teachings": 4923,
      "Words": 4924,
      "Worksheets": 4925,
      "Writing": 4926,
      "aimed": 4927,
      "dental": 4928,
      "dentist": 4929,
      "futuristic": 4930,
      "lunch": 4931,
      "paused": 4932,
      "pathologist": 4933,
      "purchase": 4934,
      "portfolio": 4935,
      "vocab": 4936,
      "yees": 4937,
      "thanks": 4938,
      "error": 4939,
      "register": 4940,
      "regularly": 4941,
      "rosoft": 4942,
      "debates": 4943,
      "debater": 4944,
      "debaters": 4945,
      "isement": 4946,
      "chatting": 4947,
      "chatgp": 4948,
      "properly": 4949,
      "property": 4950,
      "properties": 4951,
      "education": 4952,
      "educate": 4953,
      "educated": 4954,
      "excellent": 4955,
      "existing": 4956,
      "existed": 4957,
      "existent": 4958,
      "existence": 4959,
      "setting": 4960,
      "surreal": 4961,
      "surrealistic": 4962,
      "suited": 4963,
      "suitability": 4964,
      "header": 4965,
      "heading": 4966,
      "headache": 4967,
      "condition": 4968,
      "container": 4969,
      "containing": 4970,
      "shared": 4971,
      "performing": 4972,
      "performed": 4973,
      "owered": 4974,
      "exploration": 4975,
      "imagination": 4976,
      "etymologist": 4977,
      "principals": 4978,
      "grammatically": 4979,
      "identity": 4980,
      "identify": 4981,
      "addressing": 4982,
      "addressed": 4983,
      "lookout": 4984,
      "Transcript": 4985,
      "nonym": 4986,
      "capturing": 4987,
      "smallest": 4988,
      "behavioral": 4989,
      "behaviorist": 4990,
      "budgeting": 4991,
      "concerning": 4992,
      "concerned": 4993,
      "Cheap": 4994,
      "Checker": 4995,
      "Chemical": 4996,
      "Frame": 4997,
      "Friend": 4998,
      "Max": 4999,
      "Math": 5000,
      "Majj": 5001,
      "Mango": 5002,
      "Manchest": 5003,
      "Overview": 5004,
      "Poet": 5005,
      "Pokemon": 5006,
      "PokeAPI": 5007,
      "Person": 5008,
      "Strategist": 5009,
      "biles": 5010,
      "casual": 5011,
      "float": 5012,
      "flower": 5013,
      "floss": 5014,
      "ibutions": 5015,
      "layout": 5016,
      "lengthy": 5017,
      "nutritionist": 5018,
      "partners": 5019,
      "pasted": 5020,
      "screenings": 5021,
      "screenwriter": 5022,
      "inspiring": 5023,
      "promoting": 5024,
      "memorable": 5025,
      "placing": 5026,
      "placement": 5027,
      "placeholder": 5028,
      "separating": 5029,
      "solely": 5030,
      "consuming": 5031,
      "consumption": 5032,
      "constructive": 5033,
      "directors": 5034,
      "applying": 5035,
      "comprehend": 5036,
      "feeling": 5037,
      "ReactJS": 5038,
      "physics": 5039,
      "findings": 5040,
      "synonym": 5041,
      "evaluation": 5042,
      "Analogies": 5043,
      "progression": 5044,
      "descriptive": 5045,
      "subjective": 5046,
      "interpretation": 5047,
      "Legal": 5048,
      "criticism": 5049,
      "integration": 5050,
      "integrated": 5051,
      "discussion": 5052,
      "discussions": 5053,
      "implementation": 5054,
      "20th": 5055,
      "Following": 5056,
      "Help": 5057,
      "Letter": 5058,
      "Music": 5059,
      "Shall": 5060,
      "Shopper": 5061,
      "Sheet": 5062,
      "Shepherd": 5063,
      "Speech": 5064,
      "Speaking": 5065,
      "Speaker": 5066,
      "Specialist": 5067,
      "Solutions": 5068,
      "Unit": 5069,
      "Unable": 5070,
      "United": 5071,
      "Unconstr": 5072,
      "axis": 5073,
      "axios": 5074,
      "base64": 5075,
      "close": 5076,
      "clothing": 5077,
      "closer": 5078,
      "closed": 5079,
      "fairy": 5080,
      "fairs": 5081,
      "faulty": 5082,
      "hiking": 5083,
      "hypnotherapist": 5084,
      "hydrated": 5085,
      "humans": 5086,
      "humorous": 5087,
      "immutable": 5088,
      "iously": 5089,
      "packages": 5090,
      "safest": 5091,
      "waiting": 5092,
      "insert": 5093,
      "inserts": 5094,
      "insertion": 5095,
      "inserted": 5096,
      "referring": 5097,
      "repositories": 5098,
      "alternative": 5099,
      "deeply": 5100,
      "demonstration": 5101,
      "measure": 5102,
      "plotline": 5103,
      "irmations": 5104,
      "seek": 5105,
      "teams": 5106,
      "utilizing": 5107,
      "accountant": 5108,
      "clarity": 5109,
      "clarify": 5110,
      "clarifications": 5111,
      "clarification": 5112,
      "primarily": 5113,
      "spectators": 5114,
      "crafted": 5115,
      "graphs": 5116,
      "corporate": 5117,
      "adviser": 5118,
      "Requests": 5119,
      "Requested": 5120,
      "phpversion": 5121,
      "avoiding": 5122,
      "Explore": 5123,
      "Exploration": 5124,
      "completely": 5125,
      "thoughtfully": 5126,
      "Adviser": 5127,
      "refinement": 5128,
      "refinements": 5129,
      "Practices": 5130,
      "confidently": 5131,
      "confidentiality": 5132,
      "homework": 5133,
      "significance": 5134,
      "Clarification": 5135,
      "years": 5136,
      "Structuring": 5137,
      "WebPilo": 5138,
      "label": 5139,
      "labeled": 5140,
      "evaluations": 5141,
      "evaluating": 5142,
      "Analyze": 5143,
      "Analysis": 5144,
      "economical": 5145,
      "economics": 5146,
      "http": 5147,
      "indexed": 5148,
      "industry": 5149,
      "industrial": 5150,
      "environmental": 5151,
      "campaigns": 5152,
      "Apple": 5153,
      "DER": 5154,
      "DESC": 5155,
      "Dietitian": 5156,
      "Education": 5157,
      "Fullstack": 5158,
      "Health": 5159,
      "Logic": 5160,
      "Logical": 5161,
      "Logistician": 5162,
      "Model": 5163,
      "Magician": 5164,
      "Relationship": 5165,
      "Security": 5166,
      "Second": 5167,
      "Seeking": 5168,
      "Series": 5169,
      "Service": 5170,
      "Seriously": 5171,
      "Salesperson": 5172,
      "Ticket": 5173,
      "Testing": 5174,
      "Takeaways": 5175,
      "Toolkit": 5176,
      "athleisure": 5177,
      "amaze": 5178,
      "affect": 5179,
      "affirmations": 5180,
      "balance": 5181,
      "benefits": 5182,
      "catering": 5183,
      "cleanings": 5184,
      "equipped": 5185,
      "emphasize": 5186,
      "emphasizing": 5187,
      "empowered": 5188,
      "family": 5189,
      "foundational": 5190,
      "happening": 5191,
      "jungle": 5192,
      "male": 5193,
      "malicious": 5194,
      "malfunctions": 5195,
      "miss": 5196,
      "missing": 5197,
      "misdirection": 5198,
      "pirates": 5199,
      "route": 5200,
      "risks": 5201,
      "spoilers": 5202,
      "sourcing": 5203,
      "salesperson": 5204,
      "wrong": 5205,
      "watching": 5206,
      "indicate": 5207,
      "increased": 5208,
      "incorporating": 5209,
      "reactor": 5210,
      "returned": 5211,
      "stackoverflow": 5212,
      "allowed": 5213,
      "detector": 5214,
      "decorator": 5215,
      "leadership": 5216,
      "exhibits": 5217,
      "expanding": 5218,
      "expanded": 5219,
      "searches": 5220,
      "beliefs": 5221,
      "beforehand": 5222,
      "society": 5223,
      "conveying": 5224,
      "converter": 5225,
      "advertiser": 5226,
      "advertising": 5227,
      "advertisement": 5228,
      "dialect": 5229,
      "dialog": 5230,
      "dialogu": 5231,
      "modification": 5232,
      "appeal": 5233,
      "struggling": 5234,
      "stronger": 5235,
      "polite": 5236,
      "political": 5237,
      "politics": 5238,
      "creatures": 5239,
      "tracing": 5240,
      "trains": 5241,
      "trainer": 5242,
      "training": 5243,
      "therapy": 5244,
      "claims": 5245,
      "allergies": 5246,
      "formula": 5247,
      "computers": 5248,
      "openings": 5249,
      "openai": 5250,
      "interviews": 5251,
      "cruises": 5252,
      "grounds": 5253,
      "predicting": 5254,
      "prepared": 5255,
      "Install": 5256,
      "Inputs": 5257,
      "typical": 5258,
      "insight": 5259,
      "Commit": 5260,
      "employing": 5261,
      "employed": 5262,
      "employees": 5263,
      "Android": 5264,
      "collected": 5265,
      "collections": 5266,
      "programs": 5267,
      "investment": 5268,
      "investments": 5269,
      "friendly": 5270,
      "friendship": 5271,
      "reflections": 5272,
      "values": 5273,
      "validation": 5274,
      "replacements": 5275,
      "Guessing": 5276,
      "literature": 5277,
      "maximize": 5278,
      "Improvement": 5279,
      "journalist": 5280,
      "journalistic": 5281,
      "pursue": 5282,
      "contributions": 5283,
      "captivate": 5284,
      "applications": 5285,
      "applicable": 5286,
      "applicants": 5287,
      "Structured": 5288,
      "Breakdown": 5289,
      "candidates": 5290,
      "honestly": 5291,
      "particularly": 5292,
      "').\"\"\"": 5293,
      "ABCDE": 5294,
      "Acoustic": 5295,
      "Accountant": 5296,
      "Click": 5297,
      "Classical": 5298,
      "Feel": 5299,
      "Feedback": 5300,
      "Finder": 5301,
      "Financial": 5302,
      "History": 5303,
      "Historian": 5304,
      "Links": 5305,
      "Linux": 5306,
      "LinkedIn": 5307,
      "Mentor": 5308,
      "Mental": 5309,
      "Otherwise": 5310,
      "Renewable": 5311,
      "Renais": 5312,
      "SIRP": 5313,
      "System": 5314,
      "Synonym": 5315,
      "Scientific": 5316,
      "Scientist": 5317,
      "Stylist": 5318,
      "Styles": 5319,
      "TeX": 5320,
      "Tea": 5321,
      "aesthetic": 5322,
      "aesthetics": 5323,
      "broad": 5324,
      "broken": 5325,
      "babysitter": 5326,
      "browser": 5327,
      "browsing": 5328,
      "century": 5329,
      "destinations": 5330,
      "destination": 5331,
      "fallacy": 5332,
      "fallacies": 5333,
      "giant": 5334,
      "gilim": 5335,
      "gaslighter": 5336,
      "gaslighting": 5337,
      "herbal": 5338,
      "horizontal": 5339,
      "horoscopes": 5340,
      "harmonies": 5341,
      "himanikāya": 5342,
      "hours": 5343,
      "laptop": 5344,
      "laboratory": 5345,
      "psychology": 5346,
      "psychologist": 5347,
      "rapper": 5348,
      "rival": 5349,
      "rivals": 5350,
      "rounds": 5351,
      "rhythm": 5352,
      "rhythmic": 5353,
      "sense": 5354,
      "sensitivity": 5355,
      "savings": 5356,
      "savvy": 5357,
      "tapiṭaka": 5358,
      "tutorials": 5359,
      "yoga": 5360,
      "yogi": 5361,
      "angles": 5362,
      "inflection": 5363,
      "infusion": 5364,
      "inquiry": 5365,
      "inquiries": 5366,
      "inflation": 5367,
      "influencer": 5368,
      "instrument": 5369,
      "instruments": 5370,
      "enriched": 5371,
      "recovery": 5372,
      "recognition": 5373,
      "remaining": 5374,
      "tomobile": 5375,
      "stuff": 5376,
      "studies": 5377,
      "allocate": 5378,
      "allocating": 5379,
      "aspiring": 5380,
      "aspirations": 5381,
      "deployed": 5382,
      "deployment": 5383,
      "chords": 5384,
      "checks": 5385,
      "checker": 5386,
      "cheapest": 5387,
      "prototypes": 5388,
      "prototyping": 5389,
      "proofs": 5390,
      "proofreader": 5391,
      "estimated": 5392,
      "estimates": 5393,
      "copy": 5394,
      "copied": 5395,
      "collaboration": 5396,
      "collaborate": 5397,
      "examinations": 5398,
      "except": 5399,
      "exceptions": 5400,
      "quickly": 5401,
      "sequences": 5402,
      "suspicious": 5403,
      "suspense": 5404,
      "sustainable": 5405,
      "sustainability": 5406,
      "beats": 5407,
      "aggression": 5408,
      "aggressive": 5409,
      "cells": 5410,
      "neato": 5411,
      "conducting": 5412,
      "consistent": 5413,
      "connections": 5414,
      "connectivity": 5415,
      "shampoo": 5416,
      "shadow": 5417,
      "perspective": 5418,
      "perspectives": 5419,
      "macros": 5420,
      "macroeconomic": 5421,
      "academic": 5422,
      "academician": 5423,
      "adapt": 5424,
      "adapting": 5425,
      "administr": 5426,
      "modular": 5427,
      "modules": 5428,
      "resonated": 5429,
      "resonates": 5430,
      "populate": 5431,
      "popular": 5432,
      "commerce": 5433,
      "commercial": 5434,
      "updating": 5435,
      "updated": 5436,
      "desired": 5437,
      "Domains": 5438,
      "compared": 5439,
      "precisely": 5440,
      "Introduce": 5441,
      "Introduction": 5442,
      "Regex": 5443,
      "Regions": 5444,
      "briefly": 5445,
      "Projects": 5446,
      "combining": 5447,
      "combined": 5448,
      "comfortability": 5449,
      "Anything": 5450,
      "skincare": 5451,
      "downloads": 5452,
      "approximate": 5453,
      "approximately": 5454,
      "Continue": 5455,
      "Continuous": 5456,
      "Debate": 5457,
      "Debater": 5458,
      "awakening": 5459,
      "awakened": 5460,
      "drawing": 5461,
      "maintains": 5462,
      "maintained": 5463,
      "impactful": 5464,
      "conflicts": 5465,
      "Assisted": 5466,
      "Assistant": 5467,
      "Approachable": 5468,
      "Mathematical": 5469,
      "Mathematician": 5470,
      "nutritionally": 5471,
      "screenshot": 5472,
      "screenshots": 5473,
      "hypothesis": 5474,
      "hypothetical": 5475,
      "paintings": 5476,
      "drunkeness": 5477,
      "drunkenness": 5478,
      "Diagrams": 5479,
      "Philosophy": 5480,
      "Philosopher": 5481,
      "facilities": 5482,
      "facilitating": 5483,
      "satisfying": 5484,
      "satisfaction": 5485,
      "exhibiting": 5486,
      "exhibition": 5487,
      "Commentator": 5488,
      "Commentariat": 5489,
      "Crunchbase": 5490,
      "Journalist": 5491,
      "JavaScript": 5492,
      "Response": 5493,
      "Responses": 5494,
      "Researcher": 5495,
      "Utilize": 5496,
      "Utilization": 5497,
      "birthday": 5498,
      "atmosphere": 5499,
      "atmospheric": 5500,
      "established": 5501,
      "consciousness": 5502,
      "!')\"\"\"": 5503,
      "();\"\"\"": 5504,
      "1234": 5505,
      "5678": 5506,
      "9x9": 5507,
      "?\"\".\"\"": 5508,
      "Agent": 5509,
      "Akinator": 5510,
      "Automobile": 5511,
      "Aṅgut": 5512,
      "Astrologer": 5513,
      "Aphorism": 5514,
      "Academician": 5515,
      "Ascii": 5516,
      "America": 5517,
      "Biblical": 5518,
      "Box": 5519,
      "Builder": 5520,
      "Basics": 5521,
      "Babysitter": 5522,
      "Backend": 5523,
      "Browser": 5524,
      "Barrier": 5525,
      "Branding": 5526,
      "Benefits": 5527,
      "CMS": 5528,
      "CO2": 5529,
      "Cristiano": 5530,
      "Cyber": 5531,
      "Current": 5532,
      "Customer": 5533,
      "Chelsea": 5534,
      "Calling": 5535,
      "Column": 5536,
      "Counselor": 5537,
      "Climate": 5538,
      "Caveat": 5539,
      "DOT": 5540,
      "Dīghanikāya": 5541,
      "Deno": 5542,
      "Detailed": 5543,
      "Digital": 5544,
      "Depending": 5545,
      "Drunk": 5546,
      "Dharma": 5547,
      "Epic": 5548,
      "Essay": 5549,
      "Emphasize": 5550,
      "Emoji": 5551,
      "Emptor": 5552,
      "Etymologist": 5553,
      "Everyday": 5554,
      "Emergency": 5555,
      "FGHI": 5556,
      "FROM": 5557,
      "Florist": 5558,
      "Fitness": 5559,
      "Fallacy": 5560,
      "Film": 5561,
      "Football": 5562,
      "FAQs": 5563,
      "Graphviz": 5564,
      "German": 5565,
      "Grove": 5566,
      "Ghostwriter": 5567,
      "Gautama": 5568,
      "Gaslighter": 5569,
      "HTML": 5570,
      "Hypnotherapist": 5571,
      "Hadith": 5572,
      "Hayalet": 5573,
      "Hacker": 5574,
      "Iterative": 5575,
      "Italian": 5576,
      "Identify": 5577,
      "JLPT": 5578,
      "JWT": 5579,
      "Jīvaka": 5580,
      "KPIs": 5581,
      "LLM": 5582,
      "LaTeX": 5583,
      "London": 5584,
      "Large": 5585,
      "Lunatic": 5586,
      "Lawyer": 5587,
      "Literary": 5588,
      "Method": 5589,
      "Muham": 5590,
      "Matrix": 5591,
      "Mitigation": 5592,
      "Microsoft": 5593,
      "Message": 5594,
      "Maybe": 5595,
      "Machine": 5596,
      "Maintain": 5597,
      "Mechanic": 5598,
      "Need": 5599,
      "Nutritionist": 5600,
      "ORDER": 5601,
      "Objectives": 5602,
      "Orders": 5603,
      "Outline": 5604,
      "OpenAl": 5605,
      "Pathologist": 5606,
      "Plagiarism": 5607,
      "Public": 5608,
      "Pretend": 5609,
      "Pirate": 5610,
      "Pythagoras": 5611,
      "Password": 5612,
      "Pathways": 5613,
      "Psychologist": 5614,
      "Quran": 5615,
      "Quality": 5616,
      "Rājag": 5617,
      "Risks": 5618,
      "Redux": 5619,
      "Rapper": 5620,
      "Ronaldo": 5621,
      "REVIEW": 5622,
      "Saṁyut": 5623,
      "Skull": 5624,
      "Smart": 5625,
      "Summarizer": 5626,
      "South": 5627,
      "Split": 5628,
      "Suttapiṭaka": 5629,
      "Sunnah": 5630,
      "Spoken": 5631,
      "Simplify": 5632,
      "Suppliers": 5633,
      "Shaky": 5634,
      "Self": 5635,
      "Siddh": 5636,
      "Sevgilim": 5637,
      "Subject": 5638,
      "Screenwriter": 5639,
      "SpaceX": 5640,
      "Taco": 5641,
      "Time": 5642,
      "Tableau": 5643,
      "Topic": 5644,
      "Today": 5645,
      "TABLE": 5646,
      "Users": 5647,
      "Visualizer": 5648,
      "Video": 5649,
      "VuePress": 5650,
      "Wisdom": 5651,
      "Yogi": 5652,
      "aerospace": 5653,
      "average": 5654,
      "bouquets": 5655,
      "battery": 5656,
      "bedroom": 5657,
      "burada": 5658,
      "blogs": 5659,
      "banknotes": 5660,
      "citations": 5661,
      "circle": 5662,
      "cutting": 5663,
      "density": 5664,
      "desserts": 5665,
      "duration": 5666,
      "damage": 5667,
      "dashboards": 5668,
      "eyay": 5669,
      "elements": 5670,
      "early": 5671,
      "eliminating": 5672,
      "email": 5673,
      "empathetic": 5674,
      "elderly": 5675,
      "fuel": 5676,
      "fantasy": 5677,
      "flights": 5678,
      "fartas": 5679,
      "favourable": 5680,
      "firewall": 5681,
      "failure": 5682,
      "grown": 5683,
      "garde": 5684,
      "glycemic": 5685,
      "games": 5686,
      "glitches": 5687,
      "heders": 5688,
      "hooting": 5689,
      "hobbies": 5690,
      "housing": 5691,
      "hardware": 5692,
      "homes": 5693,
      "iPhone": 5694,
      "judgment": 5695,
      "jellyfish": 5696,
      "jewelr": 5697,
      "much": 5698,
      "menu": 5699,
      "magician": 5700,
      "money": 5701,
      "museums": 5702,
      "million": 5703,
      "massive": 5704,
      "narrow": 5705,
      "nicely": 5706,
      "narrating": 5707,
      "othly": 5708,
      "operation": 5709,
      "occasional": 5710,
      "pwd": 5711,
      "pleasing": 5712,
      "punctuation": 5713,
      "pizza": 5714,
      "palettes": 5715,
      "rights": 5716,
      "rhetorical": 5717,
      "soul": 5718,
      "square": 5719,
      "smoothly": 5720,
      "samplers": 5721,
      "slogans": 5722,
      "scurvy": 5723,
      "scale": 5724,
      "schemes": 5725,
      "snacks": 5726,
      "twists": 5727,
      "tactics": 5728,
      "t9Bgf": 5729,
      "uplift": 5730,
      "usually": 5731,
      "winner": 5732,
      "warm": 5733,
      "whether": 5734,
      "waste": 5735,
      "zodiac": 5736,
      "ārtha": 5737,
      "ancient": 5738,
      "angry": 5739,
      "anecdotes": 5740,
      "instead": 5741,
      "innovative": 5742,
      "indoors": 5743,
      "injection": 5744,
      "infrastructure": 5745,
      "incentive": 5746,
      "inconsistenci": 5747,
      "thunk": 5748,
      "orchestra": 5749,
      "encryption": 5750,
      "reliable": 5751,
      "repeat": 5752,
      "regulations": 5753,
      "retrieve": 5754,
      "refined": 5755,
      "remedies": 5756,
      "reducing": 5757,
      "revenue": 5758,
      "towards": 5759,
      "toddler": 5760,
      "ingredients": 5761,
      "stakeholders": 5762,
      "altered": 5763,
      "wildflowers": 5764,
      "assemble": 5765,
      "assignments": 5766,
      "deadlines": 5767,
      "decide": 5768,
      "deception": 5769,
      "devise": 5770,
      "definition": 5771,
      "deducted": 5772,
      "depression": 5773,
      "delays": 5774,
      "delimited": 5775,
      "default": 5776,
      "detours": 5777,
      "\"\");\"": 5778,
      "arthritis": 5779,
      "chosen": 5780,
      "chronological": 5781,
      "protecting": 5782,
      "promotes": 5783,
      "proposed": 5784,
      "provoking": 5785,
      "prospective": 5786,
      "probabillity": 5787,
      "procedure": 5788,
      "vehicle": 5789,
      "melodies": 5790,
      "methodologies": 5791,
      "mechanism": 5792,
      "plastic": 5793,
      "cognitive": 5794,
      "coherently": 5795,
      "cosmetics": 5796,
      "coordinating": 5797,
      "irritated": 5798,
      "extracting": 5799,
      "exotic": 5800,
      "excerpts": 5801,
      "executing": 5802,
      "seperated": 5803,
      "supervising": 5804,
      "supreme": 5805,
      "celebration": 5806,
      "neccessary": 5807,
      "someday": 5808,
      "livelihood": 5809,
      "abdominal": 5810,
      "abstract": 5811,
      "contemporary": 5812,
      "congratulate": 5813,
      "confines": 5814,
      "consequently": 5815,
      "convince": 5816,
      "connoisseurs": 5817,
      "shading": 5818,
      "shaped": 5819,
      "teammates": 5820,
      "utility": 5821,
      "perceptions": 5822,
      "perseverance": 5823,
      "undetected": 5824,
      "unexpected": 5825,
      "outstanding": 5826,
      "outlined": 5827,
      "whisperers": 5828,
      "accepts": 5829,
      "adversity": 5830,
      "distributions": 5831,
      "diamond": 5832,
      "distinguish": 5833,
      "dimensions": 5834,
      "dizziness": 5835,
      "verifying": 5836,
      "verdicts": 5837,
      "appetizers": 5838,
      "residues": 5839,
      "resolving": 5840,
      "respectively": 5841,
      "explosion": 5842,
      "strikes": 5843,
      "istanbulu": 5844,
      "amount": 5845,
      "ambitions": 5846,
      "ambiguous": 5847,
      "pokemons": 5848,
      "policies": 5849,
      "pollution": 5850,
      "trapped": 5851,
      "troubleshooting": 5852,
      "private": 5853,
      "compassion": 5854,
      "comparisons": 5855,
      "opportunities": 5856,
      "interfaces": 5857,
      "themselves": 5858,
      "geographies": 5859,
      "preparing": 5860,
      "prefix": 5861,
      "prevailing": 5862,
      "Instructor": 5863,
      "Inspirational": 5864,
      "Influencer": 5865,
      "Investment": 5866,
      "Integration": 5867,
      "standardization": 5868,
      "observational": 5869,
      "obviously": 5870,
      "Enhancement": 5871,
      "Regularly": 5872,
      "Reasoning": 5873,
      "Refinement": 5874,
      "createSlice": 5875,
      "Programmers": 5876,
      "curriculum": 5877,
      "customers": 5878,
      "textbooks": 5879,
      "fulfilling": 5880,
      "overwhelming": 5881,
      "symbols": 5882,
      "synthesizers": 5883,
      "Comedian": 5884,
      "Anticipate": 5885,
      "Experienced": 5886,
      "Challenged": 5887,
      "Character": 5888,
      "Truck": 5889,
      "automation": 5890,
      "automobiles": 5891,
      "introductory": 5892,
      "Conclusion": 5893,
      "Contributed": 5894,
      "fragrances": 5895,
      "Advertiser": 5896,
      "Adventure": 5897,
      "LearnData": 5898,
      "Prioritize": 5899,
      "climaxes": 5900,
      "timestamps": 5901,
      "portrait": 5902,
      "SELECT": 5903,
      "furniture": 5904,
      "Interstellar": 5905,
      "ubuntu": 5906,
      "arranging": 5907,
      "diagonally": 5908,
      "Beyoğlu": 5909,
      "vocabulary": 5910,
      "chatgpt": 5911,
      "Majjhimanikāya": 5912,
      "Manchester": 5913,
      "Unconstrained": 5914,
      "WebPilot": 5915,
      "dialogues": 5916,
      "ABCDEFGHI": 5917,
      "Renaissance": 5918,
      "horizontally": 5919,
      "administrative": 5920,
      "Continuously": 5921,
      "12345678": 5922,
      "Aṅguttaranikāya": 5923,
      "Muhammad": 5924,
      "Rājagaha": 5925,
      "Saṁyuttanikāya": 5926,
      "Shakyamuni": 5927,
      "Siddhārtha": 5928,
      "firewalls": 5929,
      "jewelry": 5930,
      "inconsistencies": 5931,
      "123456789": 5932
    },
    "merges": [
      [
        "a",
        "n"
      ],
      [
        "i",
        "n"
      ],
      [
        "t",
        "h"
      ],
      [
        "o",
        "n"
      ],
      [
        "o",
        "u"
      ],
      [
        "e",
        "s"
      ],
      [
        "e",
        "r"
      ],
      [
        "a",
        "t"
      ],
      [
        "o",
        "r"
      ],
      [
        "e",
        "n"
      ],
      [
        "r",
        "e"
      ],
      [
        "t",
        "o"
      ],
      [
        "in",
        "g"
      ],
      [
        "th",
        "e"
      ],
      [
        "an",
        "d"
      ],
      [
        "s",
        "t"
      ],
      [
        "y",
        "ou"
      ],
      [
        "a",
        "l"
      ],
      [
        "i",
        "on"
      ],
      [
        "w",
        "i"
      ],
      [
        "c",
        "t"
      ],
      [
        "i",
        "t"
      ],
      [
        "a",
        "s"
      ],
      [
        "r",
        "o"
      ],
      [
        "d",
        "e"
      ],
      [
        "i",
        "s"
      ],
      [
        "l",
        "e"
      ],
      [
        "\"",
        "\""
      ],
      [
        "l",
        "l"
      ],
      [
        "i",
        "c"
      ],
      [
        "a",
        "r"
      ],
      [
        "c",
        "h"
      ],
      [
        "p",
        "ro"
      ],
      [
        "e",
        "d"
      ],
      [
        "es",
        "t"
      ],
      [
        "en",
        "t"
      ],
      [
        "v",
        "e"
      ],
      [
        "m",
        "e"
      ],
      [
        "wi",
        "ll"
      ],
      [
        "p",
        "l"
      ],
      [
        "f",
        "or"
      ],
      [
        "c",
        "o"
      ],
      [
        "an",
        "t"
      ],
      [
        "a",
        "ct"
      ],
      [
        "o",
        "f"
      ],
      [
        "i",
        "r"
      ],
      [
        "e",
        "x"
      ],
      [
        "at",
        "ion"
      ],
      [
        "w",
        "ant"
      ],
      [
        "q",
        "u"
      ],
      [
        "v",
        "i"
      ],
      [
        "wi",
        "th"
      ],
      [
        "n",
        "o"
      ],
      [
        "s",
        "e"
      ],
      [
        "s",
        "u"
      ],
      [
        "\"",
        ","
      ],
      [
        "\",",
        "\""
      ],
      [
        "b",
        "e"
      ],
      [
        "a",
        "g"
      ],
      [
        "l",
        "o"
      ],
      [
        "c",
        "e"
      ],
      [
        "m",
        "p"
      ],
      [
        "l",
        "d"
      ],
      [
        "n",
        "e"
      ],
      [
        "t",
        "er"
      ],
      [
        "es",
        "s"
      ],
      [
        "ir",
        "st"
      ],
      [
        "s",
        "o"
      ],
      [
        "at",
        "e"
      ],
      [
        "h",
        "e"
      ],
      [
        "Y",
        "ou"
      ],
      [
        "qu",
        "est"
      ],
      [
        "k",
        "e"
      ],
      [
        "l",
        "i"
      ],
      [
        "a",
        "b"
      ],
      [
        "c",
        "on"
      ],
      [
        "f",
        "irst"
      ],
      [
        "r",
        "it"
      ],
      [
        "s",
        "h"
      ],
      [
        "t",
        "e"
      ],
      [
        "p",
        "e"
      ],
      [
        "u",
        "t"
      ],
      [
        "l",
        "y"
      ],
      [
        "p",
        "er"
      ],
      [
        "pro",
        "vi"
      ],
      [
        "u",
        "n"
      ],
      [
        "you",
        "r"
      ],
      [
        "M",
        "y"
      ],
      [
        "ou",
        "ld"
      ],
      [
        "i",
        "ve"
      ],
      [
        "th",
        "at"
      ],
      [
        "m",
        "a"
      ],
      [
        "ion",
        "s"
      ],
      [
        "provi",
        "de"
      ],
      [
        "m",
        "m"
      ],
      [
        "d",
        "o"
      ],
      [
        "ou",
        "t"
      ],
      [
        "u",
        "r"
      ],
      [
        "w",
        "h"
      ],
      [
        "no",
        "t"
      ],
      [
        "a",
        "c"
      ],
      [
        "a",
        "d"
      ],
      [
        "w",
        "rit"
      ],
      [
        "s",
        "i"
      ],
      [
        "a",
        "re"
      ],
      [
        "\"\"",
        "\""
      ],
      [
        "a",
        "y"
      ],
      [
        "d",
        "i"
      ],
      [
        "g",
        "u"
      ],
      [
        "u",
        "s"
      ],
      [
        "v",
        "er"
      ],
      [
        "m",
        "o"
      ],
      [
        "m",
        "ent"
      ],
      [
        "w",
        "or"
      ],
      [
        "re",
        "quest"
      ],
      [
        "t",
        "s"
      ],
      [
        "c",
        "i"
      ],
      [
        "a",
        "p"
      ],
      [
        "u",
        "l"
      ],
      [
        "m",
        "y"
      ],
      [
        "a",
        "ch"
      ],
      [
        "ag",
        "e"
      ],
      [
        "sh",
        "ould"
      ],
      [
        "r",
        "es"
      ],
      [
        "ne",
        "ed"
      ],
      [
        "i",
        "es"
      ],
      [
        "o",
        "w"
      ],
      [
        "ex",
        "pl"
      ],
      [
        "d",
        "er"
      ],
      [
        "st",
        "r"
      ],
      [
        "ation",
        "s"
      ],
      [
        "he",
        "l"
      ],
      [
        "i",
        "st"
      ],
      [
        "hel",
        "p"
      ],
      [
        "a",
        "m"
      ],
      [
        "p",
        "o"
      ],
      [
        "ic",
        "al"
      ],
      [
        "writ",
        "e"
      ],
      [
        "an",
        "y"
      ],
      [
        "co",
        "mm"
      ],
      [
        "e",
        "ct"
      ],
      [
        "g",
        "g"
      ],
      [
        "i",
        "m"
      ],
      [
        "e",
        "t"
      ],
      [
        "g",
        "h"
      ],
      [
        "pl",
        "y"
      ],
      [
        "su",
        "gg"
      ],
      [
        "sugg",
        "est"
      ],
      [
        "c",
        "re"
      ],
      [
        "t",
        "r"
      ],
      [
        "en",
        "d"
      ],
      [
        "th",
        "er"
      ],
      [
        "th",
        "ing"
      ],
      [
        ".",
        "\"\"\""
      ],
      [
        "ab",
        "le"
      ],
      [
        ".",
        "\""
      ],
      [
        "u",
        "p"
      ],
      [
        "an",
        "s"
      ],
      [
        "c",
        "an"
      ],
      [
        "c",
        "l"
      ],
      [
        "p",
        "r"
      ],
      [
        "al",
        "l"
      ],
      [
        "ar",
        "t"
      ],
      [
        "for",
        "m"
      ],
      [
        "d",
        "es"
      ],
      [
        "i",
        "l"
      ],
      [
        "en",
        "ce"
      ],
      [
        "re",
        "ply"
      ],
      [
        "D",
        "o"
      ],
      [
        "t",
        "a"
      ],
      [
        "w",
        "er"
      ],
      [
        "en",
        "g"
      ],
      [
        "on",
        "e"
      ],
      [
        "i",
        "f"
      ],
      [
        "i",
        "v"
      ],
      [
        "in",
        "e"
      ],
      [
        "ve",
        "lo"
      ],
      [
        "co",
        "mp"
      ],
      [
        "expl",
        "an"
      ],
      [
        "h",
        "a"
      ],
      [
        "k",
        "ing"
      ],
      [
        "so",
        "me"
      ],
      [
        "o",
        "p"
      ],
      [
        "d",
        "ing"
      ],
      [
        "f",
        "f"
      ],
      [
        "s",
        "pe"
      ],
      [
        "the",
        "ir"
      ],
      [
        "wor",
        "d"
      ],
      [
        "u",
        "ct"
      ],
      [
        "a",
        "me"
      ],
      [
        "c",
        "es"
      ],
      [
        "i",
        "g"
      ],
      [
        "in",
        "ter"
      ],
      [
        "ab",
        "out"
      ],
      [
        "*",
        "*"
      ],
      [
        "u",
        "se"
      ],
      [
        "w",
        "e"
      ],
      [
        "mp",
        "t"
      ],
      [
        "explan",
        "ations"
      ],
      [
        "the",
        "m"
      ],
      [
        "cl",
        "u"
      ],
      [
        "b",
        "y"
      ],
      [
        "e",
        "l"
      ],
      [
        "on",
        "ly"
      ],
      [
        "en",
        "er"
      ],
      [
        "de",
        "velo"
      ],
      [
        "er",
        "s"
      ],
      [
        "ic",
        "e"
      ],
      [
        "o",
        "o"
      ],
      [
        "as",
        "k"
      ],
      [
        "li",
        "ke"
      ],
      [
        "c",
        "r"
      ],
      [
        "e",
        "p"
      ],
      [
        "g",
        "e"
      ],
      [
        "i",
        "p"
      ],
      [
        "at",
        "or"
      ],
      [
        "ion",
        "al"
      ],
      [
        "ro",
        "m"
      ],
      [
        "g",
        "r"
      ],
      [
        "ou",
        "r"
      ],
      [
        "le",
        "d"
      ],
      [
        "te",
        "ch"
      ],
      [
        "c",
        "or"
      ],
      [
        "f",
        "rom"
      ],
      [
        "p",
        "re"
      ],
      [
        "p",
        "ut"
      ],
      [
        "vi",
        "e"
      ],
      [
        "i",
        "z"
      ],
      [
        "l",
        "an"
      ],
      [
        "u",
        "re"
      ],
      [
        "u",
        "al"
      ],
      [
        "in",
        "clu"
      ],
      [
        "I",
        "n"
      ],
      [
        "is",
        "h"
      ],
      [
        "b",
        "le"
      ],
      [
        "h",
        "ow"
      ],
      [
        "p",
        "on"
      ],
      [
        "t",
        "y"
      ],
      [
        "to",
        "p"
      ],
      [
        "ex",
        "t"
      ],
      [
        "develo",
        "p"
      ],
      [
        "i",
        "d"
      ],
      [
        "i",
        "de"
      ],
      [
        "s",
        "ent"
      ],
      [
        "at",
        "ing"
      ],
      [
        "st",
        "and"
      ],
      [
        "lo",
        "g"
      ],
      [
        "ans",
        "wer"
      ],
      [
        "s",
        "it"
      ],
      [
        "an",
        "ce"
      ],
      [
        "at",
        "ed"
      ],
      [
        "ac",
        "k"
      ],
      [
        "ad",
        "v"
      ],
      [
        "gu",
        "age"
      ],
      [
        "as",
        "e"
      ],
      [
        "un",
        "der"
      ],
      [
        "j",
        "ect"
      ],
      [
        "u",
        "m"
      ],
      [
        "th",
        "is"
      ],
      [
        "ic",
        "s"
      ],
      [
        "co",
        "de"
      ],
      [
        "no",
        "w"
      ],
      [
        "res",
        "pon"
      ],
      [
        "T",
        "he"
      ],
      [
        "o",
        "b"
      ],
      [
        "t",
        "ing"
      ],
      [
        "u",
        "d"
      ],
      [
        "ex",
        "per"
      ],
      [
        "You",
        "r"
      ],
      [
        "li",
        "st"
      ],
      [
        "f",
        "e"
      ],
      [
        "m",
        "in"
      ],
      [
        "ar",
        "y"
      ],
      [
        "pro",
        "mpt"
      ],
      [
        "wh",
        "at"
      ],
      [
        "suggest",
        "ion"
      ],
      [
        "ha",
        "ve"
      ],
      [
        "E",
        "n"
      ],
      [
        "R",
        "e"
      ],
      [
        "s",
        "on"
      ],
      [
        "in",
        "form"
      ],
      [
        "ou",
        "gh"
      ],
      [
        "re",
        "l"
      ],
      [
        "de",
        "ta"
      ],
      [
        "te",
        "ll"
      ],
      [
        "lan",
        "guage"
      ],
      [
        "a",
        "in"
      ],
      [
        "g",
        "o"
      ],
      [
        "o",
        "ther"
      ],
      [
        "p",
        "h"
      ],
      [
        "at",
        "ive"
      ],
      [
        "it",
        "y"
      ],
      [
        "ar",
        "ch"
      ],
      [
        "ma",
        "ke"
      ],
      [
        "comm",
        "and"
      ],
      [
        "ig",
        "n"
      ],
      [
        "under",
        "stand"
      ],
      [
        "b",
        "r"
      ],
      [
        "g",
        "ener"
      ],
      [
        "i",
        "qu"
      ],
      [
        "o",
        "l"
      ],
      [
        "cre",
        "ate"
      ],
      [
        "P",
        "ro"
      ],
      [
        "c",
        "ur"
      ],
      [
        "c",
        "us"
      ],
      [
        "f",
        "o"
      ],
      [
        "l",
        "ish"
      ],
      [
        "o",
        "d"
      ],
      [
        "t",
        "ext"
      ],
      [
        "in",
        "to"
      ],
      [
        "en",
        "ces"
      ],
      [
        "no",
        "thing"
      ],
      [
        "wor",
        "k"
      ],
      [
        "el",
        "se"
      ],
      [
        "a",
        "k"
      ],
      [
        "b",
        "as"
      ],
      [
        "i",
        "e"
      ],
      [
        "t",
        "ent"
      ],
      [
        "ce",
        "p"
      ],
      [
        "mp",
        "le"
      ],
      [
        "inclu",
        "de"
      ],
      [
        "adv",
        "ice"
      ],
      [
        "W",
        "h"
      ],
      [
        "b",
        "ut"
      ],
      [
        "g",
        "ive"
      ],
      [
        "m",
        "s"
      ],
      [
        "w",
        "ay"
      ],
      [
        "or",
        "t"
      ],
      [
        "st",
        "ep"
      ],
      [
        "ne",
        "w"
      ],
      [
        "quest",
        "ion"
      ],
      [
        "str",
        "uct"
      ],
      [
        "word",
        "s"
      ],
      [
        "c",
        "ess"
      ],
      [
        "k",
        "now"
      ],
      [
        "u",
        "st"
      ],
      [
        "in",
        "si"
      ],
      [
        "ou",
        "n"
      ],
      [
        "ou",
        "s"
      ],
      [
        "or",
        "e"
      ],
      [
        "ment",
        "s"
      ],
      [
        "tech",
        "n"
      ],
      [
        "t",
        "i"
      ],
      [
        "co",
        "me"
      ],
      [
        "su",
        "ch"
      ],
      [
        "lo",
        "c"
      ],
      [
        "spe",
        "ci"
      ],
      [
        "En",
        "g"
      ],
      [
        "inform",
        "ation"
      ],
      [
        "d",
        "at"
      ],
      [
        "i",
        "al"
      ],
      [
        "s",
        "er"
      ],
      [
        "or",
        "der"
      ],
      [
        "al",
        "so"
      ],
      [
        "ch",
        "ar"
      ],
      [
        "ag",
        "ing"
      ],
      [
        "quest",
        "ions"
      ],
      [
        "**",
        ":"
      ],
      [
        "ty",
        "pe"
      ],
      [
        "a",
        "v"
      ],
      [
        "e",
        "ach"
      ],
      [
        "f",
        "ul"
      ],
      [
        "o",
        "ver"
      ],
      [
        "t",
        "w"
      ],
      [
        "v",
        "is"
      ],
      [
        "ar",
        "i"
      ],
      [
        "ent",
        "s"
      ],
      [
        "su",
        "re"
      ],
      [
        "ate",
        "g"
      ],
      [
        "con",
        "cep"
      ],
      [
        "per",
        "son"
      ],
      [
        "led",
        "ge"
      ],
      [
        "bas",
        "ed"
      ],
      [
        "T",
        "h"
      ],
      [
        "f",
        "in"
      ],
      [
        "f",
        "er"
      ],
      [
        "s",
        "y"
      ],
      [
        "w",
        "n"
      ],
      [
        "or",
        "y"
      ],
      [
        "it",
        "s"
      ],
      [
        "le",
        "ct"
      ],
      [
        "le",
        "ar"
      ],
      [
        "le",
        "ase"
      ],
      [
        "pl",
        "es"
      ],
      [
        "ke",
        "y"
      ],
      [
        "di",
        "ff"
      ],
      [
        "des",
        "ign"
      ],
      [
        "C",
        "o"
      ],
      [
        "D",
        "A"
      ],
      [
        "S",
        "t"
      ],
      [
        "c",
        "a"
      ],
      [
        "c",
        "ould"
      ],
      [
        "e",
        "m"
      ],
      [
        "g",
        "et"
      ],
      [
        "i",
        "ll"
      ],
      [
        "j",
        "ob"
      ],
      [
        "m",
        "an"
      ],
      [
        "co",
        "m"
      ],
      [
        "so",
        "l"
      ],
      [
        "im",
        "pro"
      ],
      [
        "some",
        "thing"
      ],
      [
        "vie",
        "w"
      ],
      [
        "know",
        "ledge"
      ],
      [
        "ti",
        "me"
      ],
      [
        "a",
        "ce"
      ],
      [
        "b",
        "ack"
      ],
      [
        "e",
        "v"
      ],
      [
        "g",
        "iv"
      ],
      [
        "s",
        "ing"
      ],
      [
        "t",
        "ions"
      ],
      [
        "u",
        "e"
      ],
      [
        "on",
        "g"
      ],
      [
        "es",
        "e"
      ],
      [
        "le",
        "t"
      ],
      [
        "ic",
        "ation"
      ],
      [
        "of",
        "tw"
      ],
      [
        "se",
        "l"
      ],
      [
        "pe",
        "op"
      ],
      [
        "wh",
        "en"
      ],
      [
        "ad",
        "d"
      ],
      [
        "str",
        "ateg"
      ],
      [
        "sent",
        "ence"
      ],
      [
        "rel",
        "ated"
      ],
      [
        "deta",
        "il"
      ],
      [
        "Wh",
        "en"
      ],
      [
        "Eng",
        "lish"
      ],
      [
        "char",
        "act"
      ],
      [
        "oftw",
        "are"
      ],
      [
        "peop",
        "le"
      ],
      [
        "a",
        "f"
      ],
      [
        "c",
        "is"
      ],
      [
        "d",
        "uct"
      ],
      [
        "e",
        "ch"
      ],
      [
        "i",
        "an"
      ],
      [
        "j",
        "ust"
      ],
      [
        "l",
        "es"
      ],
      [
        "l",
        "ar"
      ],
      [
        "v",
        "ing"
      ],
      [
        "er",
        "e"
      ],
      [
        "re",
        "ct"
      ],
      [
        "st",
        "ud"
      ],
      [
        "it",
        "ect"
      ],
      [
        "pl",
        "an"
      ],
      [
        "pl",
        "ay"
      ],
      [
        "be",
        "t"
      ],
      [
        "lo",
        "o"
      ],
      [
        "exper",
        "i"
      ],
      [
        "go",
        "al"
      ],
      [
        "A",
        "n"
      ],
      [
        "I",
        "f"
      ],
      [
        "b",
        "er"
      ],
      [
        "i",
        "gh"
      ],
      [
        "m",
        "ore"
      ],
      [
        "s",
        "k"
      ],
      [
        "er",
        "ent"
      ],
      [
        "pro",
        "ble"
      ],
      [
        "co",
        "l"
      ],
      [
        "si",
        "st"
      ],
      [
        "top",
        "ic"
      ],
      [
        "command",
        "s"
      ],
      [
        "techn",
        "iqu"
      ],
      [
        "dat",
        "a"
      ],
      [
        "E",
        "x"
      ],
      [
        "a",
        "st"
      ],
      [
        "a",
        "mm"
      ],
      [
        "a",
        "mple"
      ],
      [
        "b",
        "o"
      ],
      [
        "c",
        "u"
      ],
      [
        "i",
        "re"
      ],
      [
        "l",
        "ine"
      ],
      [
        "s",
        "p"
      ],
      [
        "t",
        "ask"
      ],
      [
        "v",
        "es"
      ],
      [
        "it",
        "ies"
      ],
      [
        "it",
        "ional"
      ],
      [
        "ar",
        "d"
      ],
      [
        "pro",
        "gr"
      ],
      [
        "vi",
        "d"
      ],
      [
        "ag",
        "es"
      ],
      [
        "ter",
        "min"
      ],
      [
        "do",
        "wn"
      ],
      [
        "ur",
        "al"
      ],
      [
        "ap",
        "pro"
      ],
      [
        "am",
        "ples"
      ],
      [
        "tr",
        "ans"
      ],
      [
        "des",
        "cr"
      ],
      [
        "diff",
        "erent"
      ],
      [
        "DA",
        "N"
      ],
      [
        "techniqu",
        "es"
      ],
      [
        "?",
        "\"\"\""
      ],
      [
        "C",
        "h"
      ],
      [
        "T",
        "r"
      ],
      [
        "n",
        "um"
      ],
      [
        "or",
        "ies"
      ],
      [
        "en",
        "c"
      ],
      [
        "pro",
        "ject"
      ],
      [
        "ve",
        "l"
      ],
      [
        "pr",
        "act"
      ],
      [
        "pr",
        "ess"
      ],
      [
        "ide",
        "as"
      ],
      [
        "sent",
        "ences"
      ],
      [
        "insi",
        "de"
      ],
      [
        "concep",
        "ts"
      ],
      [
        "detail",
        "s"
      ],
      [
        "a",
        "u"
      ],
      [
        "e",
        "ff"
      ],
      [
        "h",
        "as"
      ],
      [
        "i",
        "le"
      ],
      [
        "k",
        "s"
      ],
      [
        "s",
        "oftware"
      ],
      [
        "}",
        "."
      ],
      [
        "an",
        "ing"
      ],
      [
        "an",
        "al"
      ],
      [
        "in",
        "t"
      ],
      [
        "in",
        "v"
      ],
      [
        "\"\"",
        ".\""
      ],
      [
        "ic",
        "h"
      ],
      [
        "pro",
        "f"
      ],
      [
        "ex",
        "press"
      ],
      [
        "su",
        "b"
      ],
      [
        "us",
        "ing"
      ],
      [
        "ver",
        "y"
      ],
      [
        "ul",
        "t"
      ],
      [
        "eng",
        "aging"
      ],
      [
        "speci",
        "f"
      ],
      [
        "Th",
        "is"
      ],
      [
        "strateg",
        "ies"
      ],
      [
        "charact",
        "er"
      ],
      [
        "b",
        "l"
      ],
      [
        "f",
        "un"
      ],
      [
        "i",
        "ld"
      ],
      [
        "l",
        "in"
      ],
      [
        "m",
        "ar"
      ],
      [
        "m",
        "ed"
      ],
      [
        "n",
        "ame"
      ],
      [
        "s",
        "es"
      ],
      [
        "in",
        "di"
      ],
      [
        "in",
        "struct"
      ],
      [
        "or",
        "s"
      ],
      [
        "re",
        "comm"
      ],
      [
        "as",
        "sist"
      ],
      [
        "ro",
        "le"
      ],
      [
        "me",
        "aning"
      ],
      [
        "ex",
        "amples"
      ],
      [
        "wh",
        "o"
      ],
      [
        "ci",
        "al"
      ],
      [
        "expl",
        "ain"
      ],
      [
        "cre",
        "ating"
      ],
      [
        "ta",
        "in"
      ],
      [
        "comp",
        "le"
      ],
      [
        "develop",
        "ment"
      ],
      [
        "log",
        "y"
      ],
      [
        "understand",
        "ing"
      ],
      [
        "way",
        "s"
      ],
      [
        "vid",
        "ual"
      ],
      [
        "eff",
        "ect"
      ],
      [
        "indi",
        "vidual"
      ],
      [
        "C",
        "on"
      ],
      [
        "G",
        "ener"
      ],
      [
        "P",
        "lease"
      ],
      [
        "b",
        "est"
      ],
      [
        "c",
        "are"
      ],
      [
        "e",
        "as"
      ],
      [
        "e",
        "arch"
      ],
      [
        "g",
        "ame"
      ],
      [
        "m",
        "at"
      ],
      [
        "m",
        "ess"
      ],
      [
        "o",
        "t"
      ],
      [
        "p",
        "res"
      ],
      [
        "r",
        "ough"
      ],
      [
        "t",
        "it"
      ],
      [
        "t",
        "end"
      ],
      [
        "th",
        "ese"
      ],
      [
        "th",
        "rough"
      ],
      [
        "re",
        "view"
      ],
      [
        "ll",
        "ow"
      ],
      [
        "ex",
        "ample"
      ],
      [
        "vi",
        "de"
      ],
      [
        "ess",
        "ional"
      ],
      [
        "provi",
        "ding"
      ],
      [
        "ver",
        "s"
      ],
      [
        "po",
        "sit"
      ],
      [
        "ther",
        "e"
      ],
      [
        "art",
        "ic"
      ],
      [
        "inter",
        "est"
      ],
      [
        "cor",
        "rect"
      ],
      [
        "top",
        "ics"
      ],
      [
        "exper",
        "t"
      ],
      [
        "gener",
        "ator"
      ],
      [
        "fo",
        "cus"
      ],
      [
        "oun",
        "d"
      ],
      [
        "lear",
        "n"
      ],
      [
        "impro",
        "ve"
      ],
      [
        "giv",
        "en"
      ],
      [
        "termin",
        "al"
      ],
      [
        "A",
        "I"
      ],
      [
        "A",
        "r"
      ],
      [
        "D",
        "e"
      ],
      [
        "U",
        "se"
      ],
      [
        "b",
        "ul"
      ],
      [
        "b",
        "loc"
      ],
      [
        "d",
        "is"
      ],
      [
        "f",
        "r"
      ],
      [
        "i",
        "led"
      ],
      [
        "n",
        "er"
      ],
      [
        "o",
        "m"
      ],
      [
        "t",
        "est"
      ],
      [
        "t",
        "able"
      ],
      [
        "v",
        "ari"
      ],
      [
        "y",
        "th"
      ],
      [
        "th",
        "ough"
      ],
      [
        "at",
        "ic"
      ],
      [
        "ing",
        "s"
      ],
      [
        "st",
        "ate"
      ],
      [
        "ation",
        "al"
      ],
      [
        "out",
        "put"
      ],
      [
        "wh",
        "ich"
      ],
      [
        "us",
        "er"
      ],
      [
        "mo",
        "t"
      ],
      [
        "mo",
        "ve"
      ],
      [
        "ap",
        "p"
      ],
      [
        "po",
        "s"
      ],
      [
        "cre",
        "ative"
      ],
      [
        "if",
        "ic"
      ],
      [
        "comp",
        "o"
      ],
      [
        "inter",
        "pre"
      ],
      [
        "we",
        "en"
      ],
      [
        "oo",
        "k"
      ],
      [
        "our",
        "ces"
      ],
      [
        "arch",
        "itect"
      ],
      [
        "br",
        "ac"
      ],
      [
        "fo",
        "llow"
      ],
      [
        "sel",
        "f"
      ],
      [
        "bet",
        "ween"
      ],
      [
        "igh",
        "t"
      ],
      [
        "recomm",
        "end"
      ],
      [
        "bloc",
        "k"
      ],
      [
        "vari",
        "ous"
      ],
      [
        "0",
        "0"
      ],
      [
        "A",
        "d"
      ],
      [
        "a",
        "w"
      ],
      [
        "a",
        "ke"
      ],
      [
        "b",
        "u"
      ],
      [
        "b",
        "re"
      ],
      [
        "c",
        "er"
      ],
      [
        "d",
        "r"
      ],
      [
        "d",
        "u"
      ],
      [
        "e",
        "ll"
      ],
      [
        "o",
        "g"
      ],
      [
        "p",
        "ie"
      ],
      [
        "s",
        "ci"
      ],
      [
        "w",
        "ould"
      ],
      [
        "z",
        "e"
      ],
      [
        "in",
        "put"
      ],
      [
        "th",
        "od"
      ],
      [
        "re",
        "f"
      ],
      [
        "to",
        "ol"
      ],
      [
        "the",
        "y"
      ],
      [
        "st",
        "art"
      ],
      [
        "de",
        "p"
      ],
      [
        "is",
        "su"
      ],
      [
        "no",
        "logy"
      ],
      [
        "ag",
        "r"
      ],
      [
        "ma",
        "in"
      ],
      [
        "si",
        "ble"
      ],
      [
        "di",
        "ence"
      ],
      [
        "gu",
        "ide"
      ],
      [
        "res",
        "earch"
      ],
      [
        "any",
        "thing"
      ],
      [
        "comm",
        "un"
      ],
      [
        "et",
        "c"
      ],
      [
        "gh",
        "ts"
      ],
      [
        "eng",
        "ine"
      ],
      [
        "we",
        "ll"
      ],
      [
        "ip",
        "s"
      ],
      [
        "deta",
        "iled"
      ],
      [
        "gener",
        "ate"
      ],
      [
        "iqu",
        "e"
      ],
      [
        "ill",
        "s"
      ],
      [
        "sol",
        "ut"
      ],
      [
        "loo",
        "king"
      ],
      [
        "sk",
        "ills"
      ],
      [
        "au",
        "dience"
      ],
      [
        "anal",
        "y"
      ],
      [
        "prof",
        "essional"
      ],
      [
        "Gener",
        "ator"
      ],
      [
        "pres",
        "ent"
      ],
      [
        "tit",
        "le"
      ],
      [
        "F",
        "or"
      ],
      [
        "L",
        "e"
      ],
      [
        "P",
        "T"
      ],
      [
        "P",
        "r"
      ],
      [
        "a",
        "king"
      ],
      [
        "c",
        "al"
      ],
      [
        "f",
        "act"
      ],
      [
        "h",
        "ist"
      ],
      [
        "i",
        "mp"
      ],
      [
        "l",
        "ess"
      ],
      [
        "n",
        "on"
      ],
      [
        "n",
        "ess"
      ],
      [
        "p",
        "p"
      ],
      [
        "p",
        "ar"
      ],
      [
        "s",
        "ay"
      ],
      [
        "v",
        "al"
      ],
      [
        "v",
        "ant"
      ],
      [
        "en",
        "s"
      ],
      [
        "re",
        "e"
      ],
      [
        "re",
        "le"
      ],
      [
        "re",
        "ad"
      ],
      [
        "st",
        "y"
      ],
      [
        "al",
        "th"
      ],
      [
        "as",
        "s"
      ],
      [
        "ic",
        "es"
      ],
      [
        "me",
        "thod"
      ],
      [
        "ne",
        "cess"
      ],
      [
        "con",
        "f"
      ],
      [
        "con",
        "tent"
      ],
      [
        "te",
        "ach"
      ],
      [
        "un",
        "ique"
      ],
      [
        "ma",
        "y"
      ],
      [
        "provide",
        "d"
      ],
      [
        "ur",
        "es"
      ],
      [
        "gu",
        "ess"
      ],
      [
        "end",
        "s"
      ],
      [
        "comp",
        "any"
      ],
      [
        "we",
        "b"
      ],
      [
        "ip",
        "t"
      ],
      [
        "cur",
        "ly"
      ],
      [
        "step",
        "s"
      ],
      [
        "Co",
        "ach"
      ],
      [
        "cis",
        "e"
      ],
      [
        "goal",
        "s"
      ],
      [
        "appro",
        "ach"
      ],
      [
        "inv",
        "ol"
      ],
      [
        "specif",
        "ic"
      ],
      [
        "comple",
        "x"
      ],
      [
        "effect",
        "ive"
      ],
      [
        "tool",
        "s"
      ],
      [
        "rele",
        "vant"
      ],
      [
        "G",
        "PT"
      ],
      [
        "S",
        "o"
      ],
      [
        "a",
        "il"
      ],
      [
        "b",
        "od"
      ],
      [
        "c",
        "li"
      ],
      [
        "c",
        "rit"
      ],
      [
        "c",
        "oun"
      ],
      [
        "e",
        "mo"
      ],
      [
        "g",
        "an"
      ],
      [
        "i",
        "a"
      ],
      [
        "i",
        "ed"
      ],
      [
        "i",
        "lo"
      ],
      [
        "l",
        "ay"
      ],
      [
        "o",
        "s"
      ],
      [
        "p",
        "es"
      ],
      [
        "p",
        "at"
      ],
      [
        "s",
        "ame"
      ],
      [
        "t",
        "im"
      ],
      [
        "u",
        "ll"
      ],
      [
        "y",
        "ing"
      ],
      [
        "on",
        "un"
      ],
      [
        "re",
        "pl"
      ],
      [
        "re",
        "qu"
      ],
      [
        "st",
        "ory"
      ],
      [
        "st",
        "em"
      ],
      [
        "ch",
        "oo"
      ],
      [
        "pro",
        "duct"
      ],
      [
        "pl",
        "ication"
      ],
      [
        "be",
        "en"
      ],
      [
        "lo",
        "w"
      ],
      [
        "he",
        "alth"
      ],
      [
        "ke",
        "t"
      ],
      [
        "ke",
        "ts"
      ],
      [
        "ma",
        "them"
      ],
      [
        "wh",
        "ile"
      ],
      [
        "writ",
        "ing"
      ],
      [
        "si",
        "der"
      ],
      [
        "mo",
        "ves"
      ],
      [
        "po",
        "tent"
      ],
      [
        "suggest",
        "ions"
      ],
      [
        "op",
        "tions"
      ],
      [
        "tech",
        "nology"
      ],
      [
        "cor",
        "ding"
      ],
      [
        "vie",
        "wer"
      ],
      [
        "speci",
        "al"
      ],
      [
        "vis",
        "ual"
      ],
      [
        "person",
        "al"
      ],
      [
        "ca",
        "use"
      ],
      [
        "af",
        "ter"
      ],
      [
        "experi",
        "ence"
      ],
      [
        "proble",
        "m"
      ],
      [
        "amm",
        "ing"
      ],
      [
        "num",
        "ber"
      ],
      [
        "fun",
        "ct"
      ],
      [
        "eas",
        "y"
      ],
      [
        "yth",
        "on"
      ],
      [
        "issu",
        "es"
      ],
      [
        "necess",
        "ary"
      ],
      [
        "bod",
        "y"
      ],
      [
        "onun",
        "ci"
      ],
      [
        "potent",
        "ial"
      ],
      [
        "?",
        "\""
      ],
      [
        "A",
        "l"
      ],
      [
        "A",
        "s"
      ],
      [
        "F",
        "irst"
      ],
      [
        "G",
        "u"
      ],
      [
        "T",
        "ech"
      ],
      [
        "b",
        "us"
      ],
      [
        "c",
        "ap"
      ],
      [
        "c",
        "lear"
      ],
      [
        "d",
        "on"
      ],
      [
        "e",
        "very"
      ],
      [
        "f",
        "it"
      ],
      [
        "g",
        "n"
      ],
      [
        "g",
        "it"
      ],
      [
        "i",
        "be"
      ],
      [
        "m",
        "on"
      ],
      [
        "m",
        "er"
      ],
      [
        "p",
        "or"
      ],
      [
        "p",
        "lease"
      ],
      [
        "s",
        "m"
      ],
      [
        "t",
        "en"
      ],
      [
        "v",
        "ir"
      ],
      [
        "in",
        "ess"
      ],
      [
        "th",
        "o"
      ],
      [
        "th",
        "en"
      ],
      [
        "at",
        "GPT"
      ],
      [
        "or",
        "gan"
      ],
      [
        "en",
        "sure"
      ],
      [
        "re",
        "al"
      ],
      [
        "re",
        "am"
      ],
      [
        "the",
        "me"
      ],
      [
        "ct",
        "or"
      ],
      [
        "de",
        "d"
      ],
      [
        "le",
        "vel"
      ],
      [
        "act",
        "ion"
      ],
      [
        "act",
        "iv"
      ],
      [
        "with",
        "in"
      ],
      [
        "be",
        "ing"
      ],
      [
        "be",
        "cause"
      ],
      [
        "ne",
        "t"
      ],
      [
        "ter",
        "n"
      ],
      [
        "so",
        "ph"
      ],
      [
        "ke",
        "ep"
      ],
      [
        "li",
        "m"
      ],
      [
        "li",
        "fe"
      ],
      [
        "do",
        "cu"
      ],
      [
        "wh",
        "ere"
      ],
      [
        "not",
        "es"
      ],
      [
        "ac",
        "cording"
      ],
      [
        "gu",
        "id"
      ],
      [
        "gu",
        "lar"
      ],
      [
        "mo",
        "vie"
      ],
      [
        "tr",
        "a"
      ],
      [
        "eng",
        "th"
      ],
      [
        "iz",
        "ed"
      ],
      [
        "inclu",
        "ding"
      ],
      [
        "develop",
        "ing"
      ],
      [
        "respon",
        "ses"
      ],
      [
        "min",
        "d"
      ],
      [
        "son",
        "g"
      ],
      [
        "sy",
        "stem"
      ],
      [
        "St",
        "art"
      ],
      [
        "add",
        "itional"
      ],
      [
        "proble",
        "ms"
      ],
      [
        "progr",
        "amming"
      ],
      [
        "Ch",
        "atGPT"
      ],
      [
        "De",
        "velo"
      ],
      [
        "brac",
        "kets"
      ],
      [
        "agr",
        "am"
      ],
      [
        "method",
        "s"
      ],
      [
        "coun",
        "t"
      ],
      [
        "ilo",
        "soph"
      ],
      [
        "requ",
        "ire"
      ],
      [
        "guid",
        "ance"
      ],
      [
        ")",
        "."
      ],
      [
        "1",
        "0"
      ],
      [
        "A",
        "ct"
      ],
      [
        "B",
        "ud"
      ],
      [
        "C",
        "re"
      ],
      [
        "S",
        "E"
      ],
      [
        "d",
        "ay"
      ],
      [
        "d",
        "ha"
      ],
      [
        "e",
        "c"
      ],
      [
        "e",
        "f"
      ],
      [
        "e",
        "th"
      ],
      [
        "f",
        "l"
      ],
      [
        "f",
        "ur"
      ],
      [
        "f",
        "oo"
      ],
      [
        "g",
        "in"
      ],
      [
        "g",
        "ir"
      ],
      [
        "h",
        "o"
      ],
      [
        "h",
        "ance"
      ],
      [
        "i",
        "k"
      ],
      [
        "i",
        "or"
      ],
      [
        "i",
        "ent"
      ],
      [
        "i",
        "ate"
      ],
      [
        "l",
        "it"
      ],
      [
        "m",
        "us"
      ],
      [
        "r",
        "en"
      ],
      [
        "r",
        "ent"
      ],
      [
        "r",
        "out"
      ],
      [
        "s",
        "c"
      ],
      [
        "t",
        "al"
      ],
      [
        "t",
        "ar"
      ],
      [
        "t",
        "ag"
      ],
      [
        "in",
        "k"
      ],
      [
        "in",
        "te"
      ],
      [
        "in",
        "ts"
      ],
      [
        "er",
        "ing"
      ],
      [
        "at",
        "ical"
      ],
      [
        "re",
        "at"
      ],
      [
        "st",
        "ay"
      ],
      [
        "st",
        "ories"
      ],
      [
        "ro",
        "w"
      ],
      [
        "\"\"",
        ","
      ],
      [
        "ic",
        "ian"
      ],
      [
        "ch",
        "o"
      ],
      [
        "ch",
        "an"
      ],
      [
        "pro",
        "cess"
      ],
      [
        "ed",
        "back"
      ],
      [
        "est",
        "a"
      ],
      [
        "co",
        "ver"
      ],
      [
        "co",
        "ach"
      ],
      [
        "ation",
        "sh"
      ],
      [
        "qu",
        "al"
      ],
      [
        "no",
        "te"
      ],
      [
        "su",
        "mm"
      ],
      [
        "con",
        "t"
      ],
      [
        "con",
        "vers"
      ],
      [
        "sh",
        "ow"
      ],
      [
        "pe",
        "ct"
      ],
      [
        "ma",
        "x"
      ],
      [
        "ur",
        "ing"
      ],
      [
        "ac",
        "cur"
      ],
      [
        "writ",
        "er"
      ],
      [
        "writ",
        "ten"
      ],
      [
        "si",
        "m"
      ],
      [
        "mo",
        "st"
      ],
      [
        "wor",
        "ld"
      ],
      [
        "ap",
        "h"
      ],
      [
        "all",
        "eng"
      ],
      [
        "art",
        "ist"
      ],
      [
        "eng",
        "age"
      ],
      [
        "ha",
        "vi"
      ],
      [
        "spe",
        "ech"
      ],
      [
        "develo",
        "per"
      ],
      [
        "put",
        "ting"
      ],
      [
        "In",
        "ter"
      ],
      [
        "log",
        "ist"
      ],
      [
        "sit",
        "ion"
      ],
      [
        "um",
        "n"
      ],
      [
        "respon",
        "d"
      ],
      [
        "respon",
        "se"
      ],
      [
        "ob",
        "ject"
      ],
      [
        "Pro",
        "vide"
      ],
      [
        "techn",
        "ical"
      ],
      [
        "av",
        "ail"
      ],
      [
        "fer",
        "ences"
      ],
      [
        "man",
        "aging"
      ],
      [
        "ev",
        "ents"
      ],
      [
        "let",
        "ter"
      ],
      [
        "stud",
        "y"
      ],
      [
        "bo",
        "th"
      ],
      [
        "bo",
        "ard"
      ],
      [
        "trans",
        "l"
      ],
      [
        "mess",
        "age"
      ],
      [
        "learn",
        "ing"
      ],
      [
        "compo",
        "sition"
      ],
      [
        "imp",
        "ort"
      ],
      [
        "activ",
        "ities"
      ],
      [
        "Bud",
        "dha"
      ],
      [
        "gir",
        "l"
      ],
      [
        "avail",
        "able"
      ],
      [
        ".",
        "\"\""
      ],
      [
        "A",
        "p"
      ],
      [
        "H",
        "ow"
      ],
      [
        "H",
        "ell"
      ],
      [
        "I",
        "T"
      ],
      [
        "I",
        "m"
      ],
      [
        "K",
        "e"
      ],
      [
        "P",
        "ython"
      ],
      [
        "a",
        "ut"
      ],
      [
        "b",
        "ers"
      ],
      [
        "b",
        "ook"
      ],
      [
        "c",
        "y"
      ],
      [
        "c",
        "our"
      ],
      [
        "d",
        "ate"
      ],
      [
        "d",
        "ream"
      ],
      [
        "f",
        "i"
      ],
      [
        "h",
        "and"
      ],
      [
        "h",
        "ere"
      ],
      [
        "i",
        "th"
      ],
      [
        "i",
        "er"
      ],
      [
        "j",
        "our"
      ],
      [
        "k",
        "en"
      ],
      [
        "l",
        "ong"
      ],
      [
        "m",
        "ust"
      ],
      [
        "p",
        "u"
      ],
      [
        "p",
        "age"
      ],
      [
        "r",
        "un"
      ],
      [
        "s",
        "is"
      ],
      [
        "s",
        "ess"
      ],
      [
        "t",
        "ual"
      ],
      [
        "t",
        "reat"
      ],
      [
        "u",
        "b"
      ],
      [
        "u",
        "c"
      ],
      [
        "u",
        "ation"
      ],
      [
        "in",
        "tell"
      ],
      [
        "at",
        "ch"
      ],
      [
        "at",
        "ist"
      ],
      [
        "or",
        "ig"
      ],
      [
        "en",
        "hance"
      ],
      [
        "re",
        "ci"
      ],
      [
        "re",
        "ach"
      ],
      [
        "al",
        "ong"
      ],
      [
        "ct",
        "ion"
      ],
      [
        "de",
        "l"
      ],
      [
        "de",
        "li"
      ],
      [
        "is",
        "m"
      ],
      [
        "ar",
        "r"
      ],
      [
        "ch",
        "itect"
      ],
      [
        "ch",
        "alleng"
      ],
      [
        "ent",
        "er"
      ],
      [
        "act",
        "ive"
      ],
      [
        "with",
        "out"
      ],
      [
        "be",
        "gin"
      ],
      [
        "be",
        "havi"
      ],
      [
        "ter",
        "m"
      ],
      [
        "ab",
        "il"
      ],
      [
        "con",
        "sider"
      ],
      [
        "rit",
        "y"
      ],
      [
        "sh",
        "ort"
      ],
      [
        "un",
        "less"
      ],
      [
        "ma",
        "king"
      ],
      [
        "ur",
        "ant"
      ],
      [
        "si",
        "gn"
      ],
      [
        "di",
        "ag"
      ],
      [
        "ver",
        "t"
      ],
      [
        "ach",
        "ie"
      ],
      [
        "res",
        "ources"
      ],
      [
        "po",
        "ints"
      ],
      [
        "comm",
        "ent"
      ],
      [
        "end",
        "ing"
      ],
      [
        "form",
        "at"
      ],
      [
        "eng",
        "lish"
      ],
      [
        "iv",
        "es"
      ],
      [
        "some",
        "one"
      ],
      [
        "op",
        "in"
      ],
      [
        "spe",
        "ak"
      ],
      [
        "clu",
        "de"
      ],
      [
        "cor",
        "e"
      ],
      [
        "iz",
        "e"
      ],
      [
        "iz",
        "ation"
      ],
      [
        "In",
        "clude"
      ],
      [
        "fe",
        "at"
      ],
      [
        "fe",
        "edback"
      ],
      [
        "rel",
        "ationsh"
      ],
      [
        "ph",
        "ilosoph"
      ],
      [
        "br",
        "and"
      ],
      [
        "cur",
        "rent"
      ],
      [
        "insi",
        "ghts"
      ],
      [
        "loc",
        "ation"
      ],
      [
        "ser",
        "v"
      ],
      [
        "vis",
        "it"
      ],
      [
        "lect",
        "ion"
      ],
      [
        "lect",
        "ure"
      ],
      [
        "man",
        "age"
      ],
      [
        "com",
        "ing"
      ],
      [
        "stud",
        "ents"
      ],
      [
        "bet",
        "ter"
      ],
      [
        "col",
        "umn"
      ],
      [
        "cu",
        "rity"
      ],
      [
        "descr",
        "ibe"
      ],
      [
        "num",
        "bers"
      ],
      [
        "pract",
        "ical"
      ],
      [
        "instruct",
        "ions"
      ],
      [
        "care",
        "er"
      ],
      [
        "artic",
        "le"
      ],
      [
        "Ar",
        "chitect"
      ],
      [
        "bul",
        "let"
      ],
      [
        "dis",
        "cus"
      ],
      [
        "though",
        "ts"
      ],
      [
        "state",
        "ment"
      ],
      [
        "mot",
        "iv"
      ],
      [
        "pos",
        "sible"
      ],
      [
        "interpre",
        "ter"
      ],
      [
        "architect",
        "ural"
      ],
      [
        "recommend",
        "ations"
      ],
      [
        "bu",
        "ild"
      ],
      [
        "bre",
        "ak"
      ],
      [
        "pie",
        "ce"
      ],
      [
        "commun",
        "ication"
      ],
      [
        "solut",
        "ions"
      ],
      [
        "repl",
        "ies"
      ],
      [
        "bus",
        "iness"
      ],
      [
        "SE",
        "O"
      ],
      [
        "fur",
        "ther"
      ],
      [
        "sc",
        "en"
      ],
      [
        "tar",
        "get"
      ],
      [
        "esta",
        "urant"
      ],
      [
        "convers",
        "ation"
      ],
      [
        "accur",
        "ate"
      ],
      [
        "Hell",
        "o"
      ],
      [
        "intell",
        "ig"
      ],
      [
        "orig",
        "in"
      ],
      [
        ".",
        ","
      ],
      [
        "B",
        "e"
      ],
      [
        "B",
        "ook"
      ],
      [
        "C",
        "lar"
      ],
      [
        "G",
        "o"
      ],
      [
        "G",
        "ive"
      ],
      [
        "L",
        "an"
      ],
      [
        "M",
        "ake"
      ],
      [
        "N",
        "o"
      ],
      [
        "T",
        "each"
      ],
      [
        "W",
        "or"
      ],
      [
        "W",
        "rit"
      ],
      [
        "]",
        "."
      ],
      [
        "a",
        "ve"
      ],
      [
        "a",
        "pe"
      ],
      [
        "a",
        "im"
      ],
      [
        "b",
        "it"
      ],
      [
        "b",
        "ud"
      ],
      [
        "c",
        "all"
      ],
      [
        "d",
        "ent"
      ],
      [
        "d",
        "itional"
      ],
      [
        "d",
        "uring"
      ],
      [
        "e",
        "w"
      ],
      [
        "e",
        "ts"
      ],
      [
        "f",
        "ut"
      ],
      [
        "f",
        "il"
      ],
      [
        "g",
        "le"
      ],
      [
        "i",
        "li"
      ],
      [
        "j",
        "i"
      ],
      [
        "l",
        "un"
      ],
      [
        "m",
        "ist"
      ],
      [
        "m",
        "ight"
      ],
      [
        "n",
        "ext"
      ],
      [
        "p",
        "a"
      ],
      [
        "p",
        "ur"
      ],
      [
        "p",
        "ort"
      ],
      [
        "p",
        "ass"
      ],
      [
        "r",
        "ess"
      ],
      [
        "s",
        "he"
      ],
      [
        "t",
        "ur"
      ],
      [
        "v",
        "o"
      ],
      [
        "v",
        "ed"
      ],
      [
        "w",
        "ard"
      ],
      [
        "y",
        "e"
      ],
      [
        "y",
        "s"
      ],
      [
        "an",
        "cial"
      ],
      [
        "an",
        "bul"
      ],
      [
        "in",
        "ci"
      ],
      [
        "in",
        "ue"
      ],
      [
        "th",
        "an"
      ],
      [
        "on",
        "al"
      ],
      [
        "er",
        "r"
      ],
      [
        "at",
        "es"
      ],
      [
        "or",
        "ical"
      ],
      [
        "re",
        "g"
      ],
      [
        "re",
        "gular"
      ],
      [
        "to",
        "mer"
      ],
      [
        "al",
        "s"
      ],
      [
        "al",
        "es"
      ],
      [
        "it",
        "e"
      ],
      [
        "as",
        "on"
      ],
      [
        "as",
        "pect"
      ],
      [
        "ro",
        "s"
      ],
      [
        "de",
        "b"
      ],
      [
        "de",
        "cis"
      ],
      [
        "is",
        "e"
      ],
      [
        "ch",
        "at"
      ],
      [
        "ch",
        "ine"
      ],
      [
        "pro",
        "mp"
      ],
      [
        "pro",
        "per"
      ],
      [
        "ed",
        "uc"
      ],
      [
        "for",
        "e"
      ],
      [
        "of",
        "fer"
      ],
      [
        "ex",
        "ce"
      ],
      [
        "ex",
        "ist"
      ],
      [
        "se",
        "t"
      ],
      [
        "se",
        "curity"
      ],
      [
        "su",
        "r"
      ],
      [
        "su",
        "it"
      ],
      [
        "be",
        "aut"
      ],
      [
        "ag",
        "in"
      ],
      [
        "he",
        "ad"
      ],
      [
        "con",
        "d"
      ],
      [
        "con",
        "tr"
      ],
      [
        "con",
        "tain"
      ],
      [
        "con",
        "cer"
      ],
      [
        "con",
        "cise"
      ],
      [
        "sh",
        "are"
      ],
      [
        "ut",
        "rit"
      ],
      [
        "per",
        "i"
      ],
      [
        "per",
        "form"
      ],
      [
        "your",
        "self"
      ],
      [
        "ma",
        "chine"
      ],
      [
        "si",
        "mple"
      ],
      [
        "di",
        "git"
      ],
      [
        "ul",
        "ate"
      ],
      [
        "ul",
        "ts"
      ],
      [
        "need",
        "s"
      ],
      [
        "ow",
        "er"
      ],
      [
        "expl",
        "or"
      ],
      [
        "help",
        "ful"
      ],
      [
        "po",
        "int"
      ],
      [
        "im",
        "agin"
      ],
      [
        "et",
        "y"
      ],
      [
        "suggest",
        "ing"
      ],
      [
        "cre",
        "en"
      ],
      [
        "pr",
        "onunci"
      ],
      [
        "pr",
        "inci"
      ],
      [
        "form",
        "s"
      ],
      [
        "cr",
        "ipt"
      ],
      [
        "ional",
        "ity"
      ],
      [
        "gr",
        "amm"
      ],
      [
        "pre",
        "tend"
      ],
      [
        "iz",
        "ing"
      ],
      [
        "id",
        "ent"
      ],
      [
        "answer",
        "s"
      ],
      [
        "Pro",
        "mpt"
      ],
      [
        "tent",
        "ion"
      ],
      [
        "over",
        "all"
      ],
      [
        "ari",
        "os"
      ],
      [
        "concep",
        "t"
      ],
      [
        "key",
        "word"
      ],
      [
        "ca",
        "pe"
      ],
      [
        "sol",
        "ving"
      ],
      [
        "add",
        "ress"
      ],
      [
        "loo",
        "k"
      ],
      [
        "experi",
        "enc"
      ],
      [
        "sp",
        "ace"
      ],
      [
        "Tr",
        "ans"
      ],
      [
        "ild",
        "ren"
      ],
      [
        "mar",
        "ket"
      ],
      [
        "assist",
        "ant"
      ],
      [
        "meaning",
        "ful"
      ],
      [
        "mat",
        "ch"
      ],
      [
        "vide",
        "o"
      ],
      [
        "interest",
        "ing"
      ],
      [
        "Ad",
        "ditional"
      ],
      [
        "non",
        "y"
      ],
      [
        "So",
        "cr"
      ],
      [
        "pat",
        "ient"
      ],
      [
        "mathem",
        "atical"
      ],
      [
        "funct",
        "ionality"
      ],
      [
        "cap",
        "t"
      ],
      [
        "sm",
        "all"
      ],
      [
        "tho",
        "se"
      ],
      [
        "docu",
        "ment"
      ],
      [
        "Develo",
        "per"
      ],
      [
        "tag",
        "s"
      ],
      [
        "summ",
        "ary"
      ],
      [
        "import",
        "ant"
      ],
      [
        "Ke",
        "ep"
      ],
      [
        "behavi",
        "or"
      ],
      [
        "abil",
        "ity"
      ],
      [
        "diag",
        "no"
      ],
      [
        "scen",
        "arios"
      ],
      [
        "bud",
        "get"
      ],
      [
        "tur",
        "n"
      ],
      [
        "promp",
        "ts"
      ],
      [
        "concer",
        "n"
      ],
      [
        "digit",
        "al"
      ],
      [
        "Additional",
        "ly"
      ],
      [
        "A",
        "f"
      ],
      [
        "C",
        "he"
      ],
      [
        "F",
        "r"
      ],
      [
        "I",
        "st"
      ],
      [
        "M",
        "a"
      ],
      [
        "M",
        "an"
      ],
      [
        "O",
        "n"
      ],
      [
        "O",
        "ver"
      ],
      [
        "O",
        "ff"
      ],
      [
        "P",
        "o"
      ],
      [
        "P",
        "ers"
      ],
      [
        "S",
        "tr"
      ],
      [
        "S",
        "oftware"
      ],
      [
        "T",
        "o"
      ],
      [
        "W",
        "e"
      ],
      [
        "a",
        "ther"
      ],
      [
        "a",
        "id"
      ],
      [
        "b",
        "il"
      ],
      [
        "c",
        "k"
      ],
      [
        "c",
        "as"
      ],
      [
        "d",
        "s"
      ],
      [
        "e",
        "ded"
      ],
      [
        "f",
        "est"
      ],
      [
        "f",
        "lo"
      ],
      [
        "f",
        "ull"
      ],
      [
        "h",
        "igh"
      ],
      [
        "i",
        "des"
      ],
      [
        "i",
        "mple"
      ],
      [
        "i",
        "but"
      ],
      [
        "j",
        "s"
      ],
      [
        "l",
        "a"
      ],
      [
        "l",
        "ength"
      ],
      [
        "m",
        "it"
      ],
      [
        "m",
        "any"
      ],
      [
        "n",
        "g"
      ],
      [
        "n",
        "at"
      ],
      [
        "n",
        "al"
      ],
      [
        "n",
        "one"
      ],
      [
        "n",
        "ers"
      ],
      [
        "n",
        "utrit"
      ],
      [
        "p",
        "art"
      ],
      [
        "p",
        "ast"
      ],
      [
        "p",
        "ower"
      ],
      [
        "r",
        "and"
      ],
      [
        "r",
        "ight"
      ],
      [
        "r",
        "estaurant"
      ],
      [
        "s",
        "ources"
      ],
      [
        "s",
        "creen"
      ],
      [
        "s",
        "cape"
      ],
      [
        "t",
        "ion"
      ],
      [
        "t",
        "ic"
      ],
      [
        "t",
        "ed"
      ],
      [
        "t",
        "one"
      ],
      [
        "t",
        "ics"
      ],
      [
        "t",
        "ips"
      ],
      [
        "y",
        "le"
      ],
      [
        "y",
        "et"
      ],
      [
        "”",
        "\""
      ],
      [
        "an",
        "other"
      ],
      [
        "in",
        "sp"
      ],
      [
        "th",
        "ree"
      ],
      [
        "th",
        "ink"
      ],
      [
        "at",
        "er"
      ],
      [
        "en",
        "ess"
      ],
      [
        "en",
        "ough"
      ],
      [
        "re",
        "h"
      ],
      [
        "re",
        "ason"
      ],
      [
        "st",
        "ance"
      ],
      [
        "st",
        "atist"
      ],
      [
        "you",
        "ng"
      ],
      [
        "it",
        "er"
      ],
      [
        "it",
        "ion"
      ],
      [
        "\"\"",
        "."
      ],
      [
        "pro",
        "mo"
      ],
      [
        "ed",
        "ia"
      ],
      [
        "me",
        "m"
      ],
      [
        "pl",
        "o"
      ],
      [
        "pl",
        "ac"
      ],
      [
        "pl",
        "ace"
      ],
      [
        "co",
        "st"
      ],
      [
        "co",
        "ding"
      ],
      [
        "qu",
        "er"
      ],
      [
        "se",
        "par"
      ],
      [
        "ag",
        "er"
      ],
      [
        "ag",
        "ue"
      ],
      [
        "lo",
        "t"
      ],
      [
        "mp",
        "a"
      ],
      [
        "ne",
        "eded"
      ],
      [
        "ter",
        "ms"
      ],
      [
        "so",
        "le"
      ],
      [
        "so",
        "cial"
      ],
      [
        "li",
        "gh"
      ],
      [
        "li",
        "fest"
      ],
      [
        "con",
        "su"
      ],
      [
        "con",
        "struct"
      ],
      [
        "pe",
        "t"
      ],
      [
        "per",
        "t"
      ],
      [
        "ma",
        "de"
      ],
      [
        "out",
        "line"
      ],
      [
        "di",
        "rect"
      ],
      [
        "di",
        "agram"
      ],
      [
        "us",
        "ed"
      ],
      [
        "mo",
        "del"
      ],
      [
        "wor",
        "king"
      ],
      [
        "ap",
        "pl"
      ],
      [
        "ap",
        "ply"
      ],
      [
        "ap",
        "plication"
      ],
      [
        "ul",
        "ar"
      ],
      [
        "expl",
        "ore"
      ],
      [
        "im",
        "ages"
      ],
      [
        "up",
        "on"
      ],
      [
        "cl",
        "us"
      ],
      [
        "pr",
        "iate"
      ],
      [
        "ta",
        "king"
      ],
      [
        "if",
        "y"
      ],
      [
        "if",
        "ied"
      ],
      [
        "comp",
        "reh"
      ],
      [
        "explan",
        "ation"
      ],
      [
        "spe",
        "aking"
      ],
      [
        "ip",
        "tions"
      ],
      [
        "pre",
        "ferences"
      ],
      [
        "lan",
        "k"
      ],
      [
        "ty",
        "pes"
      ],
      [
        "sit",
        "uation"
      ],
      [
        "respon",
        "sible"
      ],
      [
        "fe",
        "el"
      ],
      [
        "Re",
        "act"
      ],
      [
        "ph",
        "ys"
      ],
      [
        "Pro",
        "duct"
      ],
      [
        "cus",
        "tomer"
      ],
      [
        "struct",
        "ure"
      ],
      [
        "fin",
        "d"
      ],
      [
        "fin",
        "ding"
      ],
      [
        "fin",
        "ancial"
      ],
      [
        "sy",
        "nony"
      ],
      [
        "design",
        "ing"
      ],
      [
        "ev",
        "al"
      ],
      [
        "charact",
        "ers"
      ],
      [
        "An",
        "al"
      ],
      [
        "Ex",
        "pert"
      ],
      [
        "ves",
        "sel"
      ],
      [
        "progr",
        "ess"
      ],
      [
        "appro",
        "priate"
      ],
      [
        "descr",
        "ipt"
      ],
      [
        "descr",
        "iptions"
      ],
      [
        "enc",
        "y"
      ],
      [
        "pract",
        "ice"
      ],
      [
        "express",
        "ions"
      ],
      [
        "sub",
        "ject"
      ],
      [
        "bl",
        "ic"
      ],
      [
        "lin",
        "k"
      ],
      [
        "mar",
        "k"
      ],
      [
        "mess",
        "ages"
      ],
      [
        "review",
        "ing"
      ],
      [
        "vers",
        "ion"
      ],
      [
        "posit",
        "ive"
      ],
      [
        "interpre",
        "t"
      ],
      [
        "architect",
        "ure"
      ],
      [
        "follow",
        "ing"
      ],
      [
        "og",
        "ies"
      ],
      [
        "pie",
        "ces"
      ],
      [
        "start",
        "up"
      ],
      [
        "dep",
        "th"
      ],
      [
        "dep",
        "ending"
      ],
      [
        "engine",
        "ering"
      ],
      [
        "solut",
        "ion"
      ],
      [
        "Le",
        "g"
      ],
      [
        "hist",
        "ory"
      ],
      [
        "hist",
        "orical"
      ],
      [
        "ens",
        "ive"
      ],
      [
        "sty",
        "le"
      ],
      [
        "teach",
        "er"
      ],
      [
        "web",
        "sit"
      ],
      [
        "invol",
        "ve"
      ],
      [
        "cli",
        "ent"
      ],
      [
        "crit",
        "ic"
      ],
      [
        "emo",
        "j"
      ],
      [
        "lay",
        "er"
      ],
      [
        "health",
        "y"
      ],
      [
        "visual",
        "s"
      ],
      [
        "Al",
        "so"
      ],
      [
        "Gu",
        "ide"
      ],
      [
        "require",
        "ments"
      ],
      [
        "ec",
        "ut"
      ],
      [
        "eth",
        "ical"
      ],
      [
        "mus",
        "ic"
      ],
      [
        "inte",
        "gr"
      ],
      [
        "cont",
        "inue"
      ],
      [
        "Ap",
        "plication"
      ],
      [
        "deli",
        "ver"
      ],
      [
        "achie",
        "ve"
      ],
      [
        "opin",
        "ion"
      ],
      [
        "discus",
        "s"
      ],
      [
        "Lan",
        "guage"
      ],
      [
        "Teach",
        "er"
      ],
      [
        "fut",
        "ure"
      ],
      [
        "lun",
        "atic"
      ],
      [
        "pass",
        "word"
      ],
      [
        "err",
        "ors"
      ],
      [
        "aspect",
        "s"
      ],
      [
        "exce",
        "l"
      ],
      [
        "peri",
        "od"
      ],
      [
        "explor",
        "ing"
      ],
      [
        "princi",
        "ples"
      ],
      [
        "Af",
        "ter"
      ],
      [
        "Ist",
        "anbul"
      ],
      [
        "imple",
        "ment"
      ],
      [
        "nat",
        "ural"
      ],
      [
        "lifest",
        "yle"
      ],
      [
        "'",
        ","
      ],
      [
        ",",
        "\"\""
      ],
      [
        ".",
        "."
      ],
      [
        "1",
        "00"
      ],
      [
        "2",
        "0"
      ],
      [
        "A",
        "sk"
      ],
      [
        "C",
        "an"
      ],
      [
        "C",
        "rit"
      ],
      [
        "D",
        "es"
      ],
      [
        "D",
        "at"
      ],
      [
        "F",
        "o"
      ],
      [
        "G",
        "ame"
      ],
      [
        "H",
        "el"
      ],
      [
        "I",
        "de"
      ],
      [
        "L",
        "et"
      ],
      [
        "M",
        "us"
      ],
      [
        "S",
        "h"
      ],
      [
        "S",
        "he"
      ],
      [
        "S",
        "pe"
      ],
      [
        "S",
        "ol"
      ],
      [
        "T",
        "ur"
      ],
      [
        "U",
        "n"
      ],
      [
        "]",
        ","
      ],
      [
        "a",
        "x"
      ],
      [
        "a",
        "it"
      ],
      [
        "b",
        "i"
      ],
      [
        "b",
        "all"
      ],
      [
        "b",
        "ase"
      ],
      [
        "b",
        "lank"
      ],
      [
        "c",
        "ar"
      ],
      [
        "c",
        "lo"
      ],
      [
        "c",
        "ase"
      ],
      [
        "c",
        "cess"
      ],
      [
        "e",
        "con"
      ],
      [
        "e",
        "mpt"
      ],
      [
        "f",
        "a"
      ],
      [
        "f",
        "ie"
      ],
      [
        "f",
        "low"
      ],
      [
        "g",
        "y"
      ],
      [
        "g",
        "or"
      ],
      [
        "g",
        "en"
      ],
      [
        "g",
        "re"
      ],
      [
        "h",
        "i"
      ],
      [
        "h",
        "t"
      ],
      [
        "h",
        "y"
      ],
      [
        "h",
        "um"
      ],
      [
        "i",
        "ly"
      ],
      [
        "i",
        "mm"
      ],
      [
        "i",
        "end"
      ],
      [
        "i",
        "ous"
      ],
      [
        "k",
        "ish"
      ],
      [
        "l",
        "s"
      ],
      [
        "l",
        "t"
      ],
      [
        "l",
        "and"
      ],
      [
        "l",
        "ast"
      ],
      [
        "n",
        "ing"
      ],
      [
        "p",
        "s"
      ],
      [
        "p",
        "ack"
      ],
      [
        "p",
        "ain"
      ],
      [
        "r",
        "ics"
      ],
      [
        "s",
        "to"
      ],
      [
        "s",
        "wer"
      ],
      [
        "s",
        "af"
      ],
      [
        "s",
        "core"
      ],
      [
        "t",
        "ball"
      ],
      [
        "u",
        "x"
      ],
      [
        "w",
        "ro"
      ],
      [
        "w",
        "ait"
      ],
      [
        "y",
        "a"
      ],
      [
        "ā",
        "ya"
      ],
      [
        "an",
        "im"
      ],
      [
        "an",
        "ik"
      ],
      [
        "an",
        "ji"
      ],
      [
        "in",
        "de"
      ],
      [
        "in",
        "ser"
      ],
      [
        "in",
        "du"
      ],
      [
        "th",
        "es"
      ],
      [
        "on",
        "d"
      ],
      [
        "on",
        "ment"
      ],
      [
        "on",
        "line"
      ],
      [
        "on",
        "tend"
      ],
      [
        "ou",
        "se"
      ],
      [
        "er",
        "ial"
      ],
      [
        "at",
        "tention"
      ],
      [
        "en",
        "ing"
      ],
      [
        "en",
        "vir"
      ],
      [
        "en",
        "ef"
      ],
      [
        "re",
        "fer"
      ],
      [
        "re",
        "posit"
      ],
      [
        "re",
        "por"
      ],
      [
        "re",
        "action"
      ],
      [
        "al",
        "tern"
      ],
      [
        "al",
        "gor"
      ],
      [
        "ion",
        "ist"
      ],
      [
        "as",
        "ed"
      ],
      [
        "as",
        "ive"
      ],
      [
        "as",
        "ci"
      ],
      [
        "as",
        "king"
      ],
      [
        "ro",
        "les"
      ],
      [
        "de",
        "e"
      ],
      [
        "de",
        "mon"
      ],
      [
        "le",
        "g"
      ],
      [
        "ll",
        "ing"
      ],
      [
        "ic",
        "k"
      ],
      [
[...]
